{
  "version": "1.0",
  "truncation": null,
  "padding": null,
  "added_tokens": [
    {
      "id": 0,
      "content": "[PAD]",
      "single_word": false,
      "lstrip": false,
      "rstrip": false,
      "normalized": false,
      "special": true
    },
    {
      "id": 1,
      "content": "[CLS]",
      "single_word": false,
      "lstrip": false,
      "rstrip": false,
      "normalized": false,
      "special": true
    },
    {
      "id": 2,
      "content": "[SEP]",
      "single_word": false,
      "lstrip": false,
      "rstrip": false,
      "normalized": false,
      "special": true
    },
    {
      "id": 3,
      "content": "[MASK]",
      "single_word": false,
      "lstrip": false,
      "rstrip": false,
      "normalized": false,
      "special": true
    },
    {
      "id": 4,
      "content": "[UNK]",
      "single_word": false,
      "lstrip": false,
      "rstrip": false,
      "normalized": false,
      "special": true
    }
  ],
  "normalizer": null,
  "pre_tokenizer": {
    "type": "WhitespaceSplit"
  },
  "post_processor": null,
  "decoder": null,
  "model": {
    "type": "BPE",
    "dropout": null,
    "unk_token": "[UNK]",
    "continuing_subword_prefix": null,
    "end_of_word_suffix": null,
    "fuse_unk": false,
    "byte_fallback": false,
    "vocab": {
      "[PAD]": 0,
      "[CLS]": 1,
      "[SEP]": 2,
      "[MASK]": 3,
      "[UNK]": 4,
      ".": 5,
      "A": 6,
      "B": 7,
      "C": 8,
      "D": 9,
      "E": 10,
      "F": 11,
      "G": 12,
      "H": 13,
      "I": 14,
      "J": 15,
      "K": 16,
      "L": 17,
      "M": 18,
      "N": 19,
      "O": 20,
      "P": 21,
      "R": 22,
      "S": 23,
      "T": 24,
      "U": 25,
      "V": 26,
      "W": 27,
      "X": 28,
      "Y": 29,
      "Z": 30,
      "a": 31,
      "b": 32,
      "c": 33,
      "d": 34,
      "e": 35,
      "f": 36,
      "g": 37,
      "h": 38,
      "i": 39,
      "j": 40,
      "k": 41,
      "l": 42,
      "m": 43,
      "n": 44,
      "o": 45,
      "p": 46,
      "r": 47,
      "s": 48,
      "t": 49,
      "u": 50,
      "v": 51,
      "w": 52,
      "x": 53,
      "y": 54,
      "z": 55,
      "Á": 56,
      "É": 57,
      "Í": 58,
      "Ó": 59,
      "Ö": 60,
      "Ú": 61,
      "Ü": 62,
      "á": 63,
      "ã": 64,
      "é": 65,
      "í": 66,
      "ó": 67,
      "ö": 68,
      "ú": 69,
      "ü": 70,
      "Ł": 71,
      "Ő": 72,
      "ő": 73,
      "ű": 74,
      "ź": 75,
      "sz": 76,
      "el": 77,
      "ek": 78,
      "et": 79,
      "ak": 80,
      "en": 81,
      "ál": 82,
      "ik": 83,
      "al": 84,
      "an": 85,
      "ok": 86,
      "at": 87,
      "nk": 88,
      "er": 89,
      "eg": 90,
      "on": 91,
      "ol": 92,
      "ér": 93,
      "or": 94,
      "cs": 95,
      "ól": 96,
      "ny": 97,
      "ar": 98,
      "ít": 99,
      "ás": 100,
      "ár": 101,
      "tok": 102,
      "oz": 103,
      "ai": 104,
      "em": 105,
      "gy": 106,
      "él": 107,
      "om": 108,
      "ez": 109,
      "nt": 110,
      "es": 111,
      "szt": 112,
      "nak": 113,
      "ké": 114,
      "ed": 115,
      "ig": 116,
      "ad": 117,
      "os": 118,
      "ért": 119,
      "meg": 120,
      "uk": 121,
      "ől": 122,
      "ra": 123,
      "vá": 124,
      "ék": 125,
      "és": 126,
      "od": 127,
      "ei": 128,
      "ot": 129,
      "ként": 130,
      "éi": 131,
      "ta": 132,
      "unk": 133,
      "iz": 134,
      "og": 135,
      "ég": 136,
      "nál": 137,
      "is": 138,
      "nek": 139,
      "ba": 140,
      "kö": 141,
      "in": 142,
      "ul": 143,
      "tek": 144,
      "be": 145,
      "il": 146,
      "ná": 147,
      "ül": 148,
      "ni": 149,
      "us": 150,
      "ág": 151,
      "val": 152,
      "ci": 153,
      "át": 154,
      "ja": 155,
      "ap": 156,
      "vé": 157,
      "ban": 158,
      "re": 159,
      "né": 160,
      "hoz": 161,
      "ki": 162,
      "áz": 163,
      "fel": 164,
      "ünk": 165,
      "ból": 166,
      "ról": 167,
      "tól": 168,
      "as": 169,
      "id": 170,
      "ük": 171,
      "án": 172,
      "am": 173,
      "it": 174,
      "im": 175,
      "ség": 176,
      "tö": 177,
      "ett": 178,
      "etek": 179,
      "aj": 180,
      "tat": 181,
      "nél": 182,
      "ia": 183,
      "zs": 184,
      "ír": 185,
      "vel": 186,
      "egy": 187,
      "ott": 188,
      "szer": 189,
      "öl": 190,
      "ag": 191,
      "jai": 192,
      "aszt": 193,
      "um": 194,
      "tel": 195,
      "ám": 196,
      "le": 197,
      "juk": 198,
      "hat": 199,
      "otok": 200,
      "ben": 201,
      "ab": 202,
      "ság": 203,
      "ter": 204,
      "na": 205,
      "ir": 206,
      "já": 207,
      "ány": 208,
      "len": 209,
      "tal": 210,
      "áll": 211,
      "ció": 212,
      "ből": 213,
      "ről": 214,
      "től": 215,
      "ész": 216,
      "ény": 217,
      "end": 218,
      "ve": 219,
      "ent": 220,
      "ur": 221,
      "ka": 222,
      "pr": 223,
      "ör": 224,
      "ma": 225,
      "ut": 226,
      "ej": 227,
      "tá": 228,
      "ös": 229,
      "hez": 230,
      "va": 231,
      "ép": 232,
      "jel": 233,
      "int": 234,
      "tr": 235,
      "ét": 236,
      "op": 237,
      "hal": 238,
      "lan": 239,
      "dik": 240,
      "tan": 241,
      "ász": 242,
      "edik": 243,
      "ön": 244,
      "tár": 245,
      "ob": 246,
      "vál": 247,
      "eszt": 248,
      "het": 249,
      "oló": 250,
      "tam": 251,
      "ony": 252,
      "oly": 253,
      "fog": 254,
      "elő": 255,
      "tet": 256,
      "ök": 257,
      "asz": 258,
      "for": 259,
      "iszt": 260,
      "kor": 261,
      "ikus": 262,
      "öz": 263,
      "ont": 264,
      "and": 265,
      "nék": 266,
      "ver": 267,
      "ne": 268,
      "di": 269,
      "áció": 270,
      "ív": 271,
      "köz": 272,
      "ker": 273,
      "izál": 274,
      "bor": 275,
      "ink": 276,
      "ill": 277,
      "ály": 278,
      "vez": 279,
      "odik": 280,
      "haj": 281,
      "ell": 282,
      "art": 283,
      "ug": 284,
      "ip": 285,
      "mus": 286,
      "esz": 287,
      "jük": 288,
      "usz": 289,
      "aik": 290,
      "az": 291,
      "ely": 292,
      "aná": 293,
      "je": 294,
      "ep": 295,
      "aid": 296,
      "vet": 297,
      "eid": 298,
      "aim": 299,
      "agy": 300,
      "új": 301,
      "aink": 302,
      "aitok": 303,
      "zik": 304,
      "tál": 305,
      "ang": 306,
      "szik": 307,
      "eim": 308,
      "var": 309,
      "eb": 310,
      "eink": 311,
      "eitek": 312,
      "vi": 313,
      "tör": 314,
      "jen": 315,
      "kó": 316,
      "tak": 317,
      "őr": 318,
      "anak": 319,
      "nánk": 320,
      "nátok": 321,
      "ély": 322,
      "atok": 323,
      "ika": 324,
      "ják": 325,
      "elm": 326,
      "játok": 327,
      "öt": 328,
      "íz": 329,
      "ló": 330,
      "lak": 331,
      "ológ": 332,
      "össz": 333,
      "tem": 334,
      "alak": 335,
      "fej": 336,
      "eng": 337,
      "úl": 338,
      "izmus": 339,
      "szem": 340,
      "ond": 341,
      "ozik": 342,
      "von": 343,
      "vis": 344,
      "any": 345,
      "te": 346,
      "har": 347,
      "sít": 348,
      "nia": 349,
      "én": 350,
      "kez": 351,
      "ud": 352,
      "ené": 353,
      "ög": 354,
      "eny": 355,
      "ko": 356,
      "mű": 357,
      "jon": 358,
      "éz": 359,
      "ch": 360,
      "kar": 361,
      "kép": 362,
      "lik": 363,
      "eik": 364,
      "ró": 365,
      "itok": 366,
      "rá": 367,
      "ház": 368,
      "vár": 369,
      "tő": 370,
      "kon": 371,
      "szó": 372,
      "li": 373,
      "ty": 374,
      "jak": 375,
      "tatok": 376,
      "hely": 377,
      "ző": 378,
      "janak": 379,
      "kol": 380,
      "junk": 381,
      "jatok": 382,
      "ke": 383,
      "vas": 384,
      "ür": 385,
      "etlen": 386,
      "un": 387,
      "ri": 388,
      "ing": 389,
      "kör": 390,
      "tor": 391,
      "áb": 392,
      "nő": 393,
      "atlan": 394,
      "per": 395,
      "sza": 396,
      "öm": 397,
      "szak": 398,
      "omb": 399,
      "té": 400,
      "tök": 401,
      "űr": 402,
      "szab": 403,
      "szám": 404,
      "osít": 405,
      "föl": 406,
      "ád": 407,
      "szél": 408,
      "nem": 409,
      "vány": 410,
      "fél": 411,
      "let": 412,
      "mer": 413,
      "leg": 414,
      "nagy": 415,
      "nénk": 416,
      "nétek": 417,
      "alk": 418,
      "ális": 419,
      "jek": 420,
      "oszt": 421,
      "hang": 422,
      "nom": 423,
      "lek": 424,
      "ós": 425,
      "éd": 426,
      "áj": 427,
      "vény": 428,
      "tunk": 429,
      "szi": 430,
      "szk": 431,
      "min": 432,
      "köl": 433,
      "vég": 434,
      "nának": 435,
      "par": 436,
      "nunk": 437,
      "notok": 438,
      "öv": 439,
      "niuk": 440,
      "esít": 441,
      "nod": 442,
      "ista": 443,
      "fa": 444,
      "vil": 445,
      "rend": 446,
      "gyó": 447,
      "talan": 448,
      "mar": 449,
      "gat": 450,
      "íroz": 451,
      "ked": 452,
      "kedik": 453,
      "fi": 454,
      "zet": 455,
      "sp": 456,
      "est": 457,
      "kom": 458,
      "endő": 459,
      "ong": 460,
      "andó": 461,
      "telen": 462,
      "vesz": 463,
      "itek": 464,
      "úz": 465,
      "kap": 466,
      "dít": 467,
      "lat": 468,
      "pol": 469,
      "tél": 470,
      "ber": 471,
      "tér": 472,
      "kí": 473,
      "bel": 474,
      "ágy": 475,
      "alom": 476,
      "bet": 477,
      "jenek": 478,
      "óz": 479,
      "ős": 480,
      "jünk": 481,
      "jetek": 482,
      "víz": 483,
      "ügy": 484,
      "osz": 485,
      "kül": 486,
      "tü": 487,
      "mány": 488,
      "bb": 489,
      "rak": 490,
      "biz": 491,
      "űz": 492,
      "vad": 493,
      "szí": 494,
      "da": 495,
      "mér": 496,
      "hi": 497,
      "ológia": 498,
      "jár": 499,
      "ti": 500,
      "bar": 501,
      "old": 502,
      "vér": 503,
      "ocs": 504,
      "vit": 505,
      "ogat": 506,
      "nap": 507,
      "csont": 508,
      "pa": 509,
      "pl": 510,
      "ák": 511,
      "fr": 512,
      "vir": 513,
      "fü": 514,
      "esség": 515,
      "jam": 516,
      "tart": 517,
      "kan": 518,
      "elem": 519,
      "gó": 520,
      "dő": 521,
      "maz": 522,
      "ém": 523,
      "ex": 524,
      "höz": 525,
      "jalak": 526,
      "nálak": 527,
      "talak": 528,
      "eni": 529,
      "tol": 530,
      "bi": 531,
      "jaik": 532,
      "jaitok": 533,
      "jaid": 534,
      "jaim": 535,
      "jaink": 536,
      "gyógy": 537,
      "ázik": 538,
      "össze": 539,
      "lát": 540,
      "ód": 541,
      "kal": 542,
      "fő": 543,
      "tünk": 544,
      "tetek": 545,
      "kodik": 546,
      "lő": 547,
      "világ": 548,
      "ács": 549,
      "mos": 550,
      "ellen": 551,
      "ull": 552,
      "st": 553,
      "szerű": 554,
      "form": 555,
      "vissza": 556,
      "mel": 557,
      "zés": 558,
      "moz": 559,
      "vak": 560,
      "nének": 561,
      "nünk": 562,
      "nie": 563,
      "niük": 564,
      "cia": 565,
      "ind": 566,
      "ható": 567,
      "ító": 568,
      "mény": 569,
      "üz": 570,
      "av": 571,
      "nád": 572,
      "vág": 573,
      "pár": 574,
      "olt": 575,
      "ium": 576,
      "átor": 577,
      "szen": 578,
      "étek": 579,
      "ani": 580,
      "föld": 581,
      "kér": 582,
      "szol": 583,
      "ca": 584,
      "of": 585,
      "ntet": 586,
      "Sz": 587,
      "gál": 588,
      "veszt": 589,
      "csi": 590,
      "tiszt": 591,
      "lás": 592,
      "pat": 593,
      "ván": 594,
      "ly": 595,
      "őz": 596,
      "nö": 597,
      "koz": 598,
      "tud": 599,
      "elek": 600,
      "kár": 601,
      "ódik": 602,
      "jék": 603,
      "hár": 604,
      "utat": 605,
      "szív": 606,
      "vezet": 607,
      "kész": 608,
      "men": 609,
      "út": 610,
      "jt": 611,
      "tag": 612,
      "foly": 613,
      "hagy": 614,
      "por": 615,
      "dí": 616,
      "ismer": 617,
      "bal": 618,
      "nyom": 619,
      "ület": 620,
      "vált": 621,
      "abb": 622,
      "izs": 623,
      "ték": 624,
      "csap": 625,
      "nám": 626,
      "utó": 627,
      "dob": 628,
      "tuk": 629,
      "lel": 630,
      "za": 631,
      "való": 632,
      "ítés": 633,
      "kr": 634,
      "ták": 635,
      "fe": 636,
      "nák": 637,
      "ha": 638,
      "ment": 639,
      "to": 640,
      "ező": 641,
      "hó": 642,
      "fo": 643,
      "szal": 644,
      "fer": 645,
      "tátok": 646,
      "met": 647,
      "tad": 648,
      "fon": 649,
      "kat": 650,
      "gg": 651,
      "keres": 652,
      "nyel": 653,
      "leszt": 654,
      "ítás": 655,
      "hető": 656,
      "fal": 657,
      "cser": 658,
      "rész": 659,
      "telek": 660,
      "de": 661,
      "pap": 662,
      "ázs": 663,
      "véd": 664,
      "köny": 665,
      "osság": 666,
      "mag": 667,
      "társ": 668,
      "her": 669,
      "beszél": 670,
      "szín": 671,
      "bu": 672,
      "zár": 673,
      "úr": 674,
      "alap": 675,
      "dzs": 676,
      "gép": 677,
      "ió": 678,
      "ant": 679,
      "enc": 680,
      "omány": 681,
      "tap": 682,
      "alizál": 683,
      "ned": 684,
      "ves": 685,
      "szo": 686,
      "jem": 687,
      "hatatlan": 688,
      "uta": 689,
      "hor": 690,
      "fény": 691,
      "ját": 692,
      "eml": 693,
      "szár": 694,
      "becs": 695,
      "mell": 696,
      "gond": 697,
      "jétek": 698,
      "nélek": 699,
      "jelek": 700,
      "lal": 701,
      "eget": 702,
      "nyer": 703,
      "tar": 704,
      "mad": 705,
      "ejt": 706,
      "élet": 707,
      "netek": 708,
      "kod": 709,
      "csill": 710,
      "választ": 711,
      "br": 712,
      "rag": 713,
      "has": 714,
      "get": 715,
      "kel": 716,
      "ac": 717,
      "ítő": 718,
      "szor": 719,
      "só": 720,
      "fiz": 721,
      "szabad": 722,
      "mes": 723,
      "kis": 724,
      "rág": 725,
      "tiz": 726,
      "fek": 727,
      "üt": 728,
      "ideg": 729,
      "der": 730,
      "ozó": 731,
      "tó": 732,
      "csú": 733,
      "egyez": 734,
      "emel": 735,
      "követ": 736,
      "jó": 737,
      "alm": 738,
      "orv": 739,
      "vész": 740,
      "vat": 741,
      "függ": 742,
      "szeg": 743,
      "pi": 744,
      "str": 745,
      "kozik": 746,
      "tám": 747,
      "táv": 748,
      "ánc": 749,
      "vél": 750,
      "szony": 751,
      "csa": 752,
      "hit": 753,
      "áns": 754,
      "tűz": 755,
      "cent": 756,
      "lám": 757,
      "hál": 758,
      "ven": 759,
      "város": 760,
      "tás": 761,
      "terem": 762,
      "jog": 763,
      "lég": 764,
      "áp": 765,
      "sor": 766,
      "pu": 767,
      "kezik": 768,
      "felh": 769,
      "tlen": 770,
      "mé": 771,
      "úly": 772,
      "sár": 773,
      "ött": 774,
      "fül": 775,
      "ya": 776,
      "gyű": 777,
      "reg": 778,
      "úg": 779,
      "ens": 780,
      "far": 781,
      "ram": 782,
      "száll": 783,
      "szág": 784,
      "gyal": 785,
      "jelent": 786,
      "lap": 787,
      "emény": 788,
      "mond": 789,
      "gaz": 790,
      "pó": 791,
      "önt": 792,
      "kés": 793,
      "lét": 794,
      "fil": 795,
      "ús": 796,
      "név": 797,
      "anánk": 798,
      "anátok": 799,
      "lé": 800,
      "szar": 801,
      "ga": 802,
      "lo": 803,
      "nok": 804,
      "idő": 805,
      "határ": 806,
      "ológus": 807,
      "kam": 808,
      "ozás": 809,
      "munk": 810,
      "tük": 811,
      "ottam": 812,
      "bocs": 813,
      "dol": 814,
      "hom": 815,
      "sért": 816,
      "almaz": 817,
      "ron": 818,
      "rad": 819,
      "ékel": 820,
      "ebb": 821,
      "pal": 822,
      "szel": 823,
      "uz": 824,
      "hát": 825,
      "la": 826,
      "köd": 827,
      "tele": 828,
      "szól": 829,
      "éj": 830,
      "dor": 831,
      "adó": 832,
      "érd": 833,
      "zó": 834,
      "kl": 835,
      "adás": 836,
      "ham": 837,
      "csol": 838,
      "hetetlen": 839,
      "cse": 840,
      "húz": 841,
      "csal": 842,
      "túl": 843,
      "cuk": 844,
      "kil": 845,
      "bol": 846,
      "rál": 847,
      "töl": 848,
      "orvos": 849,
      "nyug": 850,
      "rat": 851,
      "vers": 852,
      "ezés": 853,
      "erő": 854,
      "für": 855,
      "dok": 856,
      "ném": 857,
      "enged": 858,
      "súly": 859,
      "sí": 860,
      "dul": 861,
      "kos": 862,
      "hí": 863,
      "ru": 864,
      "hér": 865,
      "ene": 866,
      "fizet": 867,
      "öd": 868,
      "bű": 869,
      "fok": 870,
      "üv": 871,
      "tya": 872,
      "bek": 873,
      "pont": 874,
      "ikál": 875,
      "tétek": 876,
      "igaz": 877,
      "láb": 878,
      "gar": 879,
      "állít": 880,
      "hall": 881,
      "pén": 882,
      "mat": 883,
      "ország": 884,
      "ráf": 885,
      "fed": 886,
      "tatás": 887,
      "cső": 888,
      "író": 889,
      "asztal": 890,
      "ün": 891,
      "iai": 892,
      "kop": 893,
      "szent": 894,
      "all": 895,
      "negy": 896,
      "ted": 897,
      "vill": 898,
      "enék": 899,
      "gyor": 900,
      "néd": 901,
      "bil": 902,
      "bur": 903,
      "bl": 904,
      "pénz": 905,
      "ánt": 906,
      "vid": 907,
      "fagy": 908,
      "gyar": 909,
      "col": 910,
      "gyer": 911,
      "ger": 912,
      "bú": 913,
      "gör": 914,
      "lem": 915,
      "észet": 916,
      "aság": 917,
      "kereszt": 918,
      "pály": 919,
      "óri": 920,
      "szek": 921,
      "elmez": 922,
      "nyol": 923,
      "kő": 924,
      "ec": 925,
      "csó": 926,
      "raj": 927,
      "üld": 928,
      "husz": 929,
      "csön": 930,
      "játék": 931,
      "ult": 932,
      "pir": 933,
      "kéz": 934,
      "sér": 935,
      "baj": 936,
      "term": 937,
      "fl": 938,
      "ászat": 939,
      "jegy": 940,
      "nny": 941,
      "sar": 942,
      "ort": 943,
      "csat": 944,
      "könny": 945,
      "terj": 946,
      "alá": 947,
      "nök": 948,
      "vás": 949,
      "ember": 950,
      "fak": 951,
      "rek": 952,
      "edés": 953,
      "enénk": 954,
      "enétek": 955,
      "atos": 956,
      "kett": 957,
      "kur": 958,
      "sug": 959,
      "arany": 960,
      "talál": 961,
      "fér": 962,
      "elés": 963,
      "lep": 964,
      "visz": 965,
      "uh": 966,
      "ezik": 967,
      "bő": 968,
      "szék": 969,
      "külön": 970,
      "dar": 971,
      "rob": 972,
      "tit": 973,
      "óra": 974,
      "ülő": 975,
      "írás": 976,
      "öld": 977,
      "ro": 978,
      "ria": 979,
      "ográf": 980,
      "egész": 981,
      "fehér": 982,
      "hull": 983,
      "mon": 984,
      "seg": 985,
      "szög": 986,
      "elég": 987,
      "üntet": 988,
      "hozz": 989,
      "virág": 990,
      "ső": 991,
      "vásár": 992,
      "pan": 993,
      "telep": 994,
      "bán": 995,
      "év": 996,
      "arc": 997,
      "néz": 998,
      "szil": 999,
      "épít": 1000,
      "bér": 1001,
      "fű": 1002,
      "had": 1003,
      "fut": 1004,
      "ká": 1005,
      "szig": 1006,
      "illan": 1007,
      "hol": 1008,
      "lél": 1009,
      "közép": 1010,
      "pon": 1011,
      "ékony": 1012,
      "zsa": 1013,
      "töm": 1014,
      "ékeny": 1015,
      "bo": 1016,
      "vő": 1017,
      "bizony": 1018,
      "gondol": 1019,
      "takar": 1020,
      "kin": 1021,
      "part": 1022,
      "bál": 1023,
      "alizmus": 1024,
      "itás": 1025,
      "száj": 1026,
      "sok": 1027,
      "cip": 1028,
      "tanul": 1029,
      "test": 1030,
      "ölcs": 1031,
      "szim": 1032,
      "arch": 1033,
      "tizen": 1034,
      "mak": 1035,
      "cion": 1036,
      "egyen": 1037,
      "vaszt": 1038,
      "otta": 1039,
      "nyil": 1040,
      "dal": 1041,
      "fot": 1042,
      "könyv": 1043,
      "dem": 1044,
      "olaj": 1045,
      "ord": 1046,
      "mod": 1047,
      "sül": 1048,
      "szö": 1049,
      "fest": 1050,
      "viz": 1051,
      "tató": 1052,
      "med": 1053,
      "tekint": 1054,
      "vegy": 1055,
      "gazd": 1056,
      "kény": 1057,
      "fogy": 1058,
      "zat": 1059,
      "zás": 1060,
      "jön": 1061,
      "ettem": 1062,
      "csí": 1063,
      "ulat": 1064,
      "kir": 1065,
      "pad": 1066,
      "rep": 1067,
      "szed": 1068,
      "oda": 1069,
      "más": 1070,
      "si": 1071,
      "üd": 1072,
      "cske": 1073,
      "tu": 1074,
      "hasz": 1075,
      "fejleszt": 1076,
      "ce": 1077,
      "nyelv": 1078,
      "enek": 1079,
      "kusz": 1080,
      "vít": 1081,
      "jelöl": 1082,
      "újra": 1083,
      "sik": 1084,
      "éta": 1085,
      "goly": 1086,
      "telefon": 1087,
      "if": 1088,
      "elfog": 1089,
      "ved": 1090,
      "bizt": 1091,
      "rom": 1092,
      "bak": 1093,
      "bár": 1094,
      "verseny": 1095,
      "dez": 1096,
      "ion": 1097,
      "vag": 1098,
      "aján": 1099,
      "teng": 1100,
      "tes": 1101,
      "érz": 1102,
      "formál": 1103,
      "zsi": 1104,
      "mand": 1105,
      "encia": 1106,
      "szabály": 1107,
      "til": 1108,
      "seb": 1109,
      "csip": 1110,
      "pá": 1111,
      "cska": 1112,
      "szolgál": 1113,
      "távol": 1114,
      "jég": 1115,
      "ona": 1116,
      "orít": 1117,
      "jei": 1118,
      "jeink": 1119,
      "anom": 1120,
      "jeik": 1121,
      "cc": 1122,
      "jeid": 1123,
      "jeim": 1124,
      "jeitek": 1125,
      "olás": 1126,
      "ku": 1127,
      "nó": 1128,
      "disz": 1129,
      "cukor": 1130,
      "sejt": 1131,
      "tű": 1132,
      "üm": 1133,
      "ossz": 1134,
      "itál": 1135,
      "dés": 1136,
      "vizs": 1137,
      "hold": 1138,
      "sző": 1139,
      "szint": 1140,
      "hív": 1141,
      "csem": 1142,
      "nyak": 1143,
      "hét": 1144,
      "ulás": 1145,
      "konz": 1146,
      "öf": 1147,
      "gal": 1148,
      "saj": 1149,
      "faj": 1150,
      "almas": 1151,
      "tur": 1152,
      "szom": 1153,
      "fur": 1154,
      "újt": 1155,
      "rez": 1156,
      "ottál": 1157,
      "man": 1158,
      "nyolc": 1159,
      "roz": 1160,
      "meleg": 1161,
      "fin": 1162,
      "akad": 1163,
      "tüntet": 1164,
      "széd": 1165,
      "vétel": 1166,
      "harmin": 1167,
      "mutat": 1168,
      "úsít": 1169,
      "ekedik": 1170,
      "szoci": 1171,
      "bék": 1172,
      "üdv": 1173,
      "anál": 1174,
      "nevez": 1175,
      "cél": 1176,
      "res": 1177,
      "pe": 1178,
      "esül": 1179,
      "hegy": 1180,
      "árt": 1181,
      "közel": 1182,
      "bele": 1183,
      "ansz": 1184,
      "bir": 1185,
      "kes": 1186,
      "hallgat": 1187,
      "csillag": 1188,
      "vés": 1189,
      "szok": 1190,
      "ábor": 1191,
      "állam": 1192,
      "hús": 1193,
      "olvas": 1194,
      "ászik": 1195,
      "figy": 1196,
      "autó": 1197,
      "tés": 1198,
      "kont": 1199,
      "gyök": 1200,
      "izáció": 1201,
      "pró": 1202,
      "gér": 1203,
      "zsar": 1204,
      "ási": 1205,
      "kölcsön": 1206,
      "lyuk": 1207,
      "lép": 1208,
      "ráz": 1209,
      "emlék": 1210,
      "kot": 1211,
      "ge": 1212,
      "inál": 1213,
      "omat": 1214,
      "küld": 1215,
      "talmaz": 1216,
      "anának": 1217,
      "tyú": 1218,
      "talanít": 1219,
      "akodik": 1220,
      "anék": 1221,
      "anod": 1222,
      "anunk": 1223,
      "ania": 1224,
      "anotok": 1225,
      "ezet": 1226,
      "anyag": 1227,
      "aniuk": 1228,
      "kak": 1229,
      "iskol": 1230,
      "pálya": 1231,
      "elet": 1232,
      "lés": 1233,
      "megb": 1234,
      "trom": 1235,
      "gyil": 1236,
      "ór": 1237,
      "erál": 1238,
      "pillan": 1239,
      "tett": 1240,
      "összek": 1241,
      "igy": 1242,
      "éter": 1243,
      "eli": 1244,
      "atkozik": 1245,
      "adik": 1246,
      "adék": 1247,
      "üveg": 1248,
      "gen": 1249,
      "pos": 1250,
      "boly": 1251,
      "ser": 1252,
      "sem": 1253,
      "sav": 1254,
      "ezett": 1255,
      "ottak": 1256,
      "aut": 1257,
      "film": 1258,
      "vend": 1259,
      "ima": 1260,
      "lex": 1261,
      "magyar": 1262,
      "huszon": 1263,
      "ottatok": 1264,
      "ottunk": 1265,
      "szoba": 1266,
      "tus": 1267,
      "négy": 1268,
      "etel": 1269,
      "áng": 1270,
      "jelen": 1271,
      "hajó": 1272,
      "úra": 1273,
      "ülés": 1274,
      "gár": 1275,
      "ancs": 1276,
      "irány": 1277,
      "örög": 1278,
      "sa": 1279,
      "váll": 1280,
      "átok": 1281,
      "koc": 1282,
      "mis": 1283,
      "komp": 1284,
      "hű": 1285,
      "kell": 1286,
      "harminc": 1287,
      "uszt": 1288,
      "fordít": 1289,
      "bocsát": 1290,
      "kik": 1291,
      "ré": 1292,
      "áni": 1293,
      "hab": 1294,
      "üdvöz": 1295,
      "tró": 1296,
      "tlenség": 1297,
      "nép": 1298,
      "vitás": 1299,
      "An": 1300,
      "ula": 1301,
      "király": 1302,
      "bőr": 1303,
      "ju": 1304,
      "mek": 1305,
      "pszi": 1306,
      "oll": 1307,
      "intéz": 1308,
      "rem": 1309,
      "omás": 1310,
      "több": 1311,
      "halaszt": 1312,
      "ikai": 1313,
      "becsül": 1314,
      "asszony": 1315,
      "öltö": 1316,
      "fen": 1317,
      "nar": 1318,
      "szöv": 1319,
      "állat": 1320,
      "inter": 1321,
      "pas": 1322,
      "személy": 1323,
      "tartó": 1324,
      "mester": 1325,
      "szu": 1326,
      "orr": 1327,
      "jöv": 1328,
      "atív": 1329,
      "nyit": 1330,
      "tervez": 1331,
      "állap": 1332,
      "rajz": 1333,
      "tenger": 1334,
      "kas": 1335,
      "buk": 1336,
      "vezető": 1337,
      "utasít": 1338,
      "ím": 1339,
      "lámpa": 1340,
      "órium": 1341,
      "ret": 1342,
      "velő": 1343,
      "vonal": 1344,
      "fesz": 1345,
      "gan": 1346,
      "rok": 1347,
      "öszt": 1348,
      "ist": 1349,
      "szerző": 1350,
      "egez": 1351,
      "negyven": 1352,
      "vin": 1353,
      "zöld": 1354,
      "isz": 1355,
      "tív": 1356,
      "száz": 1357,
      "harmad": 1358,
      "ened": 1359,
      "odás": 1360,
      "enél": 1361,
      "amb": 1362,
      "dog": 1363,
      "íció": 1364,
      "nya": 1365,
      "megy": 1366,
      "jas": 1367,
      "háló": 1368,
      "zseb": 1369,
      "gő": 1370,
      "pri": 1371,
      "három": 1372,
      "pszich": 1373,
      "gyüm": 1374,
      "hajt": 1375,
      "gyümölcs": 1376,
      "tség": 1377,
      "nyúl": 1378,
      "egyver": 1379,
      "telenít": 1380,
      "ói": 1381,
      "oztat": 1382,
      "centr": 1383,
      "ált": 1384,
      "nyű": 1385,
      "nyal": 1386,
      "obb": 1387,
      "ési": 1388,
      "ox": 1389,
      "levél": 1390,
      "rendszer": 1391,
      "láz": 1392,
      "borz": 1393,
      "okol": 1394,
      "toj": 1395,
      "rejt": 1396,
      "bó": 1397,
      "járó": 1398,
      "gyógyít": 1399,
      "cipő": 1400,
      "rét": 1401,
      "tárgy": 1402,
      "haz": 1403,
      "onk": 1404,
      "uj": 1405,
      "szök": 1406,
      "fordul": 1407,
      "bűn": 1408,
      "van": 1409,
      "eti": 1410,
      "óka": 1411,
      "ori": 1412,
      "nivaló": 1413,
      "tom": 1414,
      "tánc": 1415,
      "vát": 1416,
      "udvar": 1417,
      "fol": 1418,
      "ias": 1419,
      "lá": 1420,
      "táj": 1421,
      "szás": 1422,
      "tanács": 1423,
      "gát": 1424,
      "hid": 1425,
      "vig": 1426,
      "ogram": 1427,
      "vadász": 1428,
      "dísz": 1429,
      "szerűsít": 1430,
      "készít": 1431,
      "del": 1432,
      "ati": 1433,
      "alkot": 1434,
      "gomb": 1435,
      "anám": 1436,
      "anád": 1437,
      "anák": 1438,
      "ográfia": 1439,
      "fáj": 1440,
      "ottad": 1441,
      "ottuk": 1442,
      "ották": 1443,
      "ottátok": 1444,
      "ológiai": 1445,
      "sugár": 1446,
      "cik": 1447,
      "mód": 1448,
      "tt": 1449,
      "ször": 1450,
      "mam": 1451,
      "rás": 1452,
      "érint": 1453,
      "séges": 1454,
      "du": 1455,
      "óm": 1456,
      "átum": 1457,
      "mu": 1458,
      "toll": 1459,
      "ígér": 1460,
      "gyermek": 1461,
      "hullám": 1462,
      "lop": 1463,
      "szé": 1464,
      "áty": 1465,
      "pro": 1466,
      "dia": 1467,
      "óly": 1468,
      "barát": 1469,
      "vizsgál": 1470,
      "fegyver": 1471,
      "üs": 1472,
      "újít": 1473,
      "alakít": 1474,
      "beteg": 1475,
      "kutat": 1476,
      "díj": 1477,
      "cig": 1478,
      "gyom": 1479,
      "fris": 1480,
      "ekszik": 1481,
      "akszik": 1482,
      "fokoz": 1483,
      "áram": 1484,
      "irigy": 1485,
      "étlen": 1486,
      "vonat": 1487,
      "folyam": 1488,
      "zavar": 1489,
      "net": 1490,
      "enz": 1491,
      "dolg": 1492,
      "po": 1493,
      "elmi": 1494,
      "fürdő": 1495,
      "dék": 1496,
      "mély": 1497,
      "érdek": 1498,
      "bél": 1499,
      "szür": 1500,
      "ömb": 1501,
      "lít": 1502,
      "mun": 1503,
      "stat": 1504,
      "yog": 1505,
      "iség": 1506,
      "övid": 1507,
      "dönt": 1508,
      "lál": 1509,
      "cselek": 1510,
      "adat": 1511,
      "vább": 1512,
      "helyez": 1513,
      "tovább": 1514,
      "hum": 1515,
      "mol": 1516,
      "árul": 1517,
      "kék": 1518,
      "oldal": 1519,
      "dás": 1520,
      "gia": 1521,
      "hír": 1522,
      "hur": 1523,
      "sak": 1524,
      "vó": 1525,
      "talanság": 1526,
      "ózis": 1527,
      "hártya": 1528,
      "des": 1529,
      "csom": 1530,
      "pres": 1531,
      "vide": 1532,
      "mot": 1533,
      "rász": 1534,
      "körül": 1535,
      "futó": 1536,
      "köp": 1537,
      "idéz": 1538,
      "hitel": 1539,
      "terjeszt": 1540,
      "dom": 1541,
      "érték": 1542,
      "biztosít": 1543,
      "szű": 1544,
      "szán": 1545,
      "ogén": 1546,
      "tölt": 1547,
      "szag": 1548,
      "agyon": 1549,
      "újjá": 1550,
      "fejt": 1551,
      "hangol": 1552,
      "említ": 1553,
      "ifikál": 1554,
      "nöm": 1555,
      "agg": 1556,
      "nöd": 1557,
      "nötök": 1558,
      "fár": 1559,
      "tört": 1560,
      "enének": 1561,
      "íl": 1562,
      "szep": 1563,
      "enem": 1564,
      "enünk": 1565,
      "enetek": 1566,
      "csel": 1567,
      "vágy": 1568,
      "kösz": 1569,
      "enie": 1570,
      "eniük": 1571,
      "bog": 1572,
      "ancia": 1573,
      "robban": 1574,
      "jellem": 1575,
      "me": 1576,
      "áris": 1577,
      "ült": 1578,
      "hiány": 1579,
      "csillap": 1580,
      "bír": 1581,
      "kendő": 1582,
      "után": 1583,
      "rendel": 1584,
      "hord": 1585,
      "det": 1586,
      "nik": 1587,
      "ének": 1588,
      "rel": 1589,
      "csep": 1590,
      "eztet": 1591,
      "esk": 1592,
      "asztó": 1593,
      "öng": 1594,
      "határoz": 1595,
      "bot": 1596,
      "zel": 1597,
      "szap": 1598,
      "dek": 1599,
      "pia": 1600,
      "bátor": 1601,
      "mél": 1602,
      "sü": 1603,
      "ánia": 1604,
      "üh": 1605,
      "bas": 1606,
      "beli": 1607,
      "öny": 1608,
      "hány": 1609,
      "csor": 1610,
      "ári": 1611,
      "tojás": 1612,
      "jú": 1613,
      "prof": 1614,
      "nep": 1615,
      "nyilván": 1616,
      "inc": 1617,
      "terh": 1618,
      "trágy": 1619,
      "visel": 1620,
      "miniszt": 1621,
      "mérg": 1622,
      "kul": 1623,
      "izz": 1624,
      "feket": 1625,
      "cer": 1626,
      "magyaráz": 1627,
      "ala": 1628,
      "ulál": 1629,
      "hib": 1630,
      "rövid": 1631,
      "sír": 1632,
      "hozzá": 1633,
      "Cs": 1634,
      "fú": 1635,
      "hon": 1636,
      "ler": 1637,
      "forg": 1638,
      "lam": 1639,
      "puszt": 1640,
      "méh": 1641,
      "nad": 1642,
      "ötök": 1643,
      "odalom": 1644,
      "bagoly": 1645,
      "onya": 1646,
      "kozás": 1647,
      "papír": 1648,
      "család": 1649,
      "gn": 1650,
      "pul": 1651,
      "váz": 1652,
      "törvény": 1653,
      "gáz": 1654,
      "ic": 1655,
      "ita": 1656,
      "löl": 1657,
      "umi": 1658,
      "entál": 1659,
      "alakul": 1660,
      "gyűlöl": 1661,
      "együt": 1662,
      "leny": 1663,
      "apcsol": 1664,
      "imál": 1665,
      "szerel": 1666,
      "fogad": 1667,
      "csemp": 1668,
      "szat": 1669,
      "madár": 1670,
      "gel": 1671,
      "körny": 1672,
      "üzd": 1673,
      "olyog": 1674,
      "szenny": 1675,
      "tudomány": 1676,
      "felhő": 1677,
      "bolond": 1678,
      "szövet": 1679,
      "dad": 1680,
      "kém": 1681,
      "din": 1682,
      "űség": 1683,
      "gyár": 1684,
      "asság": 1685,
      "halál": 1686,
      "szegény": 1687,
      "pit": 1688,
      "rán": 1689,
      "söt": 1690,
      "ápol": 1691,
      "kalap": 1692,
      "megbíz": 1693,
      "sötét": 1694,
      "cskó": 1695,
      "ragad": 1696,
      "megismer": 1697,
      "veszély": 1698,
      "vándor": 1699,
      "bok": 1700,
      "fes": 1701,
      "rém": 1702,
      "fejez": 1703,
      "gőz": 1704,
      "szerez": 1705,
      "sülly": 1706,
      "héj": 1707,
      "bom": 1708,
      "ködik": 1709,
      "vén": 1710,
      "szenved": 1711,
      "igazgat": 1712,
      "dr": 1713,
      "kél": 1714,
      "árd": 1715,
      "apró": 1716,
      "öreg": 1717,
      "öltözik": 1718,
      "beszéd": 1719,
      "osztály": 1720,
      "ros": 1721,
      "áló": 1722,
      "etlenkedik": 1723,
      "kísér": 1724,
      "keszt": 1725,
      "mo": 1726,
      "mik": 1727,
      "szin": 1728,
      "fogás": 1729,
      "tető": 1730,
      "tyű": 1731,
      "fertő": 1732,
      "mellék": 1733,
      "red": 1734,
      "sim": 1735,
      "szob": 1736,
      "jelző": 1737,
      "következ": 1738,
      "hidr": 1739,
      "vét": 1740,
      "enéd": 1741,
      "eném": 1742,
      "tetés": 1743,
      "lab": 1744,
      "szét": 1745,
      "ken": 1746,
      "cel": 1747,
      "dag": 1748,
      "Mar": 1749,
      "do": 1750,
      "ráció": 1751,
      "olya": 1752,
      "korcs": 1753,
      "ipar": 1754,
      "etlenség": 1755,
      "védelem": 1756,
      "kosár": 1757,
      "fod": 1758,
      "gon": 1759,
      "kány": 1760,
      "rény": 1761,
      "elen": 1762,
      "era": 1763,
      "gyász": 1764,
      "zsák": 1765,
      "isztika": 1766,
      "illa": 1767,
      "kocsi": 1768,
      "művész": 1769,
      "kedés": 1770,
      "nadrág": 1771,
      "font": 1772,
      "tür": 1773,
      "vör": 1774,
      "védő": 1775,
      "próbál": 1776,
      "nd": 1777,
      "szép": 1778,
      "atur": 1779,
      "csir": 1780,
      "tömeg": 1781,
      "vezér": 1782,
      "hip": 1783,
      "pus": 1784,
      "akor": 1785,
      "cim": 1786,
      "ide": 1787,
      "diszk": 1788,
      "perc": 1789,
      "betű": 1790,
      "bic": 1791,
      "fó": 1792,
      "foszt": 1793,
      "nor": 1794,
      "szüntet": 1795,
      "illet": 1796,
      "művel": 1797,
      "ruház": 1798,
      "dél": 1799,
      "ecs": 1800,
      "uál": 1801,
      "jaz": 1802,
      "kezd": 1803,
      "minő": 1804,
      "mányoz": 1805,
      "festő": 1806,
      "álló": 1807,
      "üzlet": 1808,
      "ere": 1809,
      "értelm": 1810,
      "prod": 1811,
      "éria": 1812,
      "iga": 1813,
      "lez": 1814,
      "ettek": 1815,
      "atikus": 1816,
      "ettél": 1817,
      "ettünk": 1818,
      "ettetek": 1819,
      "vastag": 1820,
      "telenség": 1821,
      "hám": 1822,
      "éh": 1823,
      "eség": 1824,
      "bem": 1825,
      "ft": 1826,
      "fék": 1827,
      "gl": 1828,
      "mas": 1829,
      "tej": 1830,
      "tápl": 1831,
      "táros": 1832,
      "tartás": 1833,
      "szarvas": 1834,
      "használ": 1835,
      "táplál": 1836,
      "bolt": 1837,
      "lalk": 1838,
      "áld": 1839,
      "foglalk": 1840,
      "anya": 1841,
      "konk": 1842,
      "kob": 1843,
      "mál": 1844,
      "pör": 1845,
      "úd": 1846,
      "stop": 1847,
      "zacskó": 1848,
      "fáty": 1849,
      "kemény": 1850,
      "enci": 1851,
      "kíván": 1852,
      "szégy": 1853,
      "fátyol": 1854,
      "hábor": 1855,
      "kegy": 1856,
      "esik": 1857,
      "izik": 1858,
      "transz": 1859,
      "uális": 1860,
      "sárg": 1861,
      "lalt": 1862,
      "mó": 1863,
      "rég": 1864,
      "kand": 1865,
      "sör": 1866,
      "ina": 1867,
      "alkalmaz": 1868,
      "ence": 1869,
      "eleg": 1870,
      "csuk": 1871,
      "rab": 1872,
      "csepp": 1873,
      "gra": 1874,
      "félre": 1875,
      "látogat": 1876,
      "büntet": 1877,
      "hög": 1878,
      "lok": 1879,
      "pop": 1880,
      "szir": 1881,
      "szén": 1882,
      "átus": 1883,
      "ette": 1884,
      "varázs": 1885,
      "elektr": 1886,
      "akadály": 1887,
      "harmadik": 1888,
      "pak": 1889,
      "észt": 1890,
      "ntart": 1891,
      "okrat": 1892,
      "halmoz": 1893,
      "nagyít": 1894,
      "polgár": 1895,
      "függő": 1896,
      "átlan": 1897,
      "ölt": 1898,
      "telj": 1899,
      "végez": 1900,
      "vásárol": 1901,
      "leges": 1902,
      "tág": 1903,
      "dikál": 1904,
      "utya": 1905,
      "ozat": 1906,
      "vall": 1907,
      "busz": 1908,
      "fúj": 1909,
      "gés": 1910,
      "hap": 1911,
      "sá": 1912,
      "vaj": 1913,
      "zene": 1914,
      "úszás": 1915,
      "ered": 1916,
      "ukció": 1917,
      "uláció": 1918,
      "cium": 1919,
      "dió": 1920,
      "törő": 1921,
      "kóp": 1922,
      "kapocs": 1923,
      "szerűség": 1924,
      "lya": 1925,
      "hagyma": 1926,
      "ack": 1927,
      "billen": 1928,
      "szekrény": 1929,
      "ómia": 1930,
      "sakk": 1931,
      "cá": 1932,
      "pál": 1933,
      "dogál": 1934,
      "vörös": 1935,
      "szur": 1936,
      "onság": 1937,
      "meggy": 1938,
      "odó": 1939,
      "beny": 1940,
      "viselő": 1941,
      "kísért": 1942,
      "növ": 1943,
      "zong": 1944,
      "ető": 1945,
      "akti": 1946,
      "gyakor": 1947,
      "etted": 1948,
      "ették": 1949,
      "ettük": 1950,
      "ettétek": 1951,
      "tárgyal": 1952,
      "borék": 1953,
      "őriz": 1954,
      "szemlél": 1955,
      "téveszt": 1956,
      "segít": 1957,
      "zongor": 1958,
      "gél": 1959,
      "ivál": 1960,
      "mog": 1961,
      "akaszt": 1962,
      "megkér": 1963,
      "tell": 1964,
      "hangosít": 1965,
      "rendez": 1966,
      "hátrak": 1967,
      "bővít": 1968,
      "ponál": 1969,
      "harc": 1970,
      "gyors": 1971,
      "poszt": 1972,
      "métel": 1973,
      "gor": 1974,
      "las": 1975,
      "mor": 1976,
      "viszony": 1977,
      "nium": 1978,
      "tét": 1979,
      "bü": 1980,
      "dör": 1981,
      "öcs": 1982,
      "ellát": 1983,
      "tip": 1984,
      "ux": 1985,
      "úság": 1986,
      "aki": 1987,
      "kötő": 1988,
      "zsír": 1989,
      "ablak": 1990,
      "irat": 1991,
      "utál": 1992,
      "elmélet": 1993,
      "ujj": 1994,
      "pet": 1995,
      "öngy": 1996,
      "illi": 1997,
      "enyér": 1998,
      "sport": 1999,
      "növény": 2000,
      "negyed": 2001,
      "disznó": 2002,
      "konzer": 2003,
      "vendég": 2004,
      "bé": 2005,
      "rög": 2006,
      "szül": 2007,
      "részeg": 2008,
      "csúf": 2009,
      "csavar": 2010,
      "ünnep": 2011,
      "rozs": 2012,
      "hü": 2013,
      "éb": 2014,
      "kötel": 2015,
      "macska": 2016,
      "előz": 2017,
      "verz": 2018,
      "kerék": 2019,
      "nemzet": 2020,
      "bizonyít": 2021,
      "evez": 2022,
      "elvet": 2023,
      "leküzd": 2024,
      "tilt": 2025,
      "közelít": 2026,
      "frissít": 2027,
      "vihar": 2028,
      "sorol": 2029,
      "öly": 2030,
      "múl": 2031,
      "két": 2032,
      "kín": 2033,
      "gur": 2034,
      "talp": 2035,
      "mal": 2036,
      "eri": 2037,
      "edék": 2038,
      "olódik": 2039,
      "tétel": 2040,
      "huz": 2041,
      "rim": 2042,
      "csök": 2043,
      "log": 2044,
      "pot": 2045,
      "ödik": 2046,
      "anti": 2047,
      "erj": 2048,
      "erny": 2049,
      "oskodik": 2050,
      "ettség": 2051,
      "tükör": 2052,
      "bri": 2053,
      "den": 2054,
      "mág": 2055,
      "rec": 2056,
      "utt": 2057,
      "gyógyászat": 2058,
      "ösztön": 2059,
      "kál": 2060,
      "csod": 2061,
      "örök": 2062,
      "élyes": 2063,
      "édes": 2064,
      "szervez": 2065,
      "helyes": 2066,
      "ombol": 2067,
      "érzékel": 2068,
      "trágyáz": 2069,
      "ax": 2070,
      "szűr": 2071,
      "amos": 2072,
      "hatodik": 2073,
      "térkép": 2074,
      "heg": 2075,
      "tikus": 2076,
      "aláz": 2077,
      "legy": 2078,
      "ring": 2079,
      "csü": 2080,
      "ková": 2081,
      "kényszer": 2082,
      "ped": 2083,
      "szít": 2084,
      "atol": 2085,
      "kös": 2086,
      "szilár": 2087,
      "figyel": 2088,
      "rit": 2089,
      "ózik": 2090,
      "alat": 2091,
      "vitor": 2092,
      "fém": 2093,
      "rip": 2094,
      "ura": 2095,
      "gyull": 2096,
      "örtö": 2097,
      "obog": 2098,
      "azon": 2099,
      "kávé": 2100,
      "bély": 2101,
      "gumi": 2102,
      "top": 2103,
      "zmus": 2104,
      "ászár": 2105,
      "rózsa": 2106,
      "tyán": 2107,
      "vitel": 2108,
      "reklám": 2109,
      "gyökér": 2110,
      "bemutat": 2111,
      "dé": 2112,
      "már": 2113,
      "mem": 2114,
      "ping": 2115,
      "ror": 2116,
      "su": 2117,
      "arat": 2118,
      "verő": 2119,
      "lovag": 2120,
      "narancs": 2121,
      "diagn": 2122,
      "ev": 2123,
      "lö": 2124,
      "lök": 2125,
      "zen": 2126,
      "zok": 2127,
      "szell": 2128,
      "indít": 2129,
      "apa": 2130,
      "ajd": 2131,
      "nevet": 2132,
      "raktár": 2133,
      "bomb": 2134,
      "döf": 2135,
      "göz": 2136,
      "pedik": 2137,
      "ököl": 2138,
      "etes": 2139,
      "ulaszt": 2140,
      "kant": 2141,
      "stim": 2142,
      "tartal": 2143,
      "gyorsít": 2144,
      "pedikűr": 2145,
      "drág": 2146,
      "jegyez": 2147,
      "arizál": 2148,
      "ukál": 2149,
      "felvág": 2150,
      "imád": 2151,
      "terel": 2152,
      "hezít": 2153,
      "koráll": 2154,
      "nehezít": 2155,
      "összez": 2156,
      "torol": 2157,
      "szakít": 2158,
      "félemlít": 2159,
      "szkál": 2160,
      "veszteget": 2161,
      "őztet": 2162,
      "derít": 2163,
      "követel": 2164,
      "gyaláz": 2165,
      "szólít": 2166,
      "dokum": 2167,
      "fedez": 2168,
      "különít": 2169,
      "egészít": 2170,
      "egészség": 2171,
      "sokall": 2172,
      "állapít": 2173,
      "gátol": 2174,
      "koló": 2175,
      "null": 2176,
      "ov": 2177,
      "csend": 2178,
      "kerül": 2179,
      "szava": 2180,
      "legel": 2181,
      "zak": 2182,
      "ismétel": 2183,
      "dics": 2184,
      "kerek": 2185,
      "házi": 2186,
      "kedvez": 2187,
      "térd": 2188,
      "látó": 2189,
      "bab": 2190,
      "ajak": 2191,
      "zsug": 2192,
      "tisztáz": 2193,
      "lán": 2194,
      "mező": 2195,
      "szület": 2196,
      "rik": 2197,
      "rett": 2198,
      "teker": 2199,
      "forrad": 2200,
      "köszön": 2201,
      "ef": 2202,
      "csop": 2203,
      "ili": 2204,
      "inta": 2205,
      "mentes": 2206,
      "csoport": 2207,
      "bud": 2208,
      "rof": 2209,
      "megjelen": 2210,
      "kilenc": 2211,
      "gú": 2212,
      "pen": 2213,
      "tí": 2214,
      "zab": 2215,
      "aló": 2216,
      "csokol": 2217,
      "vallás": 2218,
      "össég": 2219,
      "ációs": 2220,
      "kókusz": 2221,
      "chn": 2222,
      "karács": 2223,
      "hangzik": 2224,
      "keresked": 2225,
      "munka": 2226,
      "homok": 2227,
      "festék": 2228,
      "szedő": 2229,
      "szöveg": 2230,
      "graf": 2231,
      "csokolád": 2232,
      "karácsony": 2233,
      "sűr": 2234,
      "tűr": 2235,
      "ín": 2236,
      "szál": 2237,
      "gyeng": 2238,
      "hé": 2239,
      "sta": 2240,
      "alj": 2241,
      "éleszt": 2242,
      "ilit": 2243,
      "bank": 2244,
      "reszt": 2245,
      "szeres": 2246,
      "avat": 2247,
      "szégyen": 2248,
      "bont": 2249,
      "eur": 2250,
      "náz": 2251,
      "híg": 2252,
      "Kat": 2253,
      "index": 2254,
      "kiz": 2255,
      "veg": 2256,
      "készül": 2257,
      "ceg": 2258,
      "elh": 2259,
      "elv": 2260,
      "spir": 2261,
      "bia": 2262,
      "szun": 2263,
      "adt": 2264,
      "váj": 2265,
      "perec": 2266,
      "polit": 2267,
      "zsib": 2268,
      "avar": 2269,
      "iszony": 2270,
      "kelő": 2271,
      "les": 2272,
      "ein": 2273,
      "korlát": 2274,
      "kard": 2275,
      "szórak": 2276,
      "ződik": 2277,
      "lődik": 2278,
      "üzemel": 2279,
      "rongy": 2280,
      "terjed": 2281,
      "sely": 2282,
      "tul": 2283,
      "köhög": 2284,
      "valós": 2285,
      "epel": 2286,
      "kedv": 2287,
      "gazdaság": 2288,
      "zér": 2289,
      "úszó": 2290,
      "szülő": 2291,
      "ikó": 2292,
      "gyűr": 2293,
      "osodik": 2294,
      "hason": 2295,
      "szentség": 2296,
      "billentyű": 2297,
      "izom": 2298,
      "kert": 2299,
      "köröm": 2300,
      "természet": 2301,
      "jöved": 2302,
      "sej": 2303,
      "áta": 2304,
      "oka": 2305,
      "arány": 2306,
      "végre": 2307,
      "ogató": 2308,
      "ajánl": 2309,
      "pillant": 2310,
      "level": 2311,
      "patak": 2312,
      "nyolcadik": 2313,
      "háború": 2314,
      "bold": 2315,
      "időz": 2316,
      "egyet": 2317,
      "észik": 2318,
      "lic": 2319,
      "boldog": 2320,
      "vok": 2321,
      "zuh": 2322,
      "megkönny": 2323,
      "lej": 2324,
      "han": 2325,
      "elnök": 2326,
      "értő": 2327,
      "fagylalt": 2328,
      "lag": 2329,
      "torná": 2330,
      "villan": 2331,
      "mán": 2332,
      "maj": 2333,
      "márt": 2334,
      "felkel": 2335,
      "ernyő": 2336,
      "bány": 2337,
      "cím": 2338,
      "gás": 2339,
      "gró": 2340,
      "tum": 2341,
      "szam": 2342,
      "elj": 2343,
      "császár": 2344,
      "eső": 2345,
      "megúj": 2346,
      "ogás": 2347,
      "iló": 2348,
      "nész": 2349,
      "agó": 2350,
      "kac": 2351,
      "halász": 2352,
      "ikusság": 2353,
      "dium": 2354,
      "kór": 2355,
      "édia": 2356,
      "szió": 2357,
      "esítés": 2358,
      "kanál": 2359,
      "szalon": 2360,
      "ápia": 2361,
      "ográfus": 2362,
      "fotó": 2363,
      "ccel": 2364,
      "fajd": 2365,
      "tyúk": 2366,
      "iskola": 2367,
      "hibáz": 2368,
      "bélyeg": 2369,
      "gróf": 2370,
      "böl": 2371,
      "dum": 2372,
      "dug": 2373,
      "fűr": 2374,
      "szerkeszt": 2375,
      "tromb": 2376,
      "foglal": 2377,
      "fort": 2378,
      "eper": 2379,
      "óder": 2380,
      "format": 2381,
      "tapasztal": 2382,
      "fénykép": 2383,
      "jóvá": 2384,
      "jegyzet": 2385,
      "kock": 2386,
      "diagnoszt": 2387,
      "fűrész": 2388,
      "dög": 2389,
      "hideg": 2390,
      "ij": 2391,
      "tép": 2392,
      "utal": 2393,
      "vív": 2394,
      "ánk": 2395,
      "szip": 2396,
      "alko": 2397,
      "anal": 2398,
      "érvény": 2399,
      "reszel": 2400,
      "kiáll": 2401,
      "tanít": 2402,
      "forgat": 2403,
      "ábráz": 2404,
      "portál": 2405,
      "taps": 2406,
      "kísértet": 2407,
      "fir": 2408,
      "tát": 2409,
      "szop": 2410,
      "akol": 2411,
      "erd": 2412,
      "oltalmaz": 2413,
      "igál": 2414,
      "megért": 2415,
      "opt": 2416,
      "fogalmaz": 2417,
      "varr": 2418,
      "kínál": 2419,
      "teremt": 2420,
      "furcs": 2421,
      "jutalmaz": 2422,
      "hül": 2423,
      "kú": 2424,
      "pán": 2425,
      "elöl": 2426,
      "kering": 2427,
      "kincs": 2428,
      "alb": 2429,
      "cseng": 2430,
      "ref": 2431,
      "kori": 2432,
      "marad": 2433,
      "kilél": 2434,
      "fogyaszt": 2435,
      "éld": 2436,
      "fűz": 2437,
      "entum": 2438,
      "torz": 2439,
      "hivat": 2440,
      "herceg": 2441,
      "történ": 2442,
      "ih": 2443,
      "kuk": 2444,
      "zaj": 2445,
      "kapu": 2446,
      "buborék": 2447,
      "bes": 2448,
      "ová": 2449,
      "szlo": 2450,
      "elér": 2451,
      "megfel": 2452,
      "tájék": 2453,
      "objek": 2454,
      "vállalk": 2455,
      "cin": 2456,
      "fés": 2457,
      "kv": 2458,
      "lány": 2459,
      "nej": 2460,
      "paj": 2461,
      "ulya": 2462,
      "prot": 2463,
      "edike": 2464,
      "fix": 2465,
      "szenv": 2466,
      "felhábor": 2467,
      "gyerek": 2468,
      "bony": 2469,
      "búz": 2470,
      "desz": 2471,
      "eh": 2472,
      "gu": 2473,
      "gömb": 2474,
      "mut": 2475,
      "miszt": 2476,
      "gyan": 2477,
      "gyöngy": 2478,
      "eszter": 2479,
      "kormány": 2480,
      "lakó": 2481,
      "házasság": 2482,
      "szótár": 2483,
      "méreg": 2484,
      "gyógyszer": 2485,
      "folyó": 2486,
      "hagyomány": 2487,
      "fojt": 2488,
      "magas": 2489,
      "gyűj": 2490,
      "jelentés": 2491,
      "bajnok": 2492,
      "kettő": 2493,
      "repülő": 2494,
      "pehely": 2495,
      "szappan": 2496,
      "fas": 2497,
      "jós": 2498,
      "komb": 2499,
      "lim": 2500,
      "ovál": 2501,
      "völ": 2502,
      "termel": 2503,
      "terror": 2504,
      "prom": 2505,
      "vics": 2506,
      "harmon": 2507,
      "chan": 2508,
      "homály": 2509,
      "kurz": 2510,
      "mechan": 2511,
      "elszív": 2512,
      "árnyal": 2513,
      "emi": 2514,
      "működ": 2515,
      "csúcs": 2516,
      "egyeztet": 2517,
      "terhel": 2518,
      "süllyeszt": 2519,
      "ébreszt": 2520,
      "organ": 2521,
      "tetik": 2522,
      "folyik": 2523,
      "cserél": 2524,
      "súlyoz": 2525,
      "robbant": 2526,
      "képzel": 2527,
      "kapcsol": 2528,
      "főző": 2529,
      "bíró": 2530,
      "up": 2531,
      "felügy": 2532,
      "kok": 2533,
      "erős": 2534,
      "osabb": 2535,
      "szeren": 2536,
      "bors": 2537,
      "villa": 2538,
      "görb": 2539,
      "különb": 2540,
      "epr": 2541,
      "nyi": 2542,
      "meglep": 2543,
      "elmes": 2544,
      "összefügg": 2545,
      "kaland": 2546,
      "bugy": 2547,
      "szörny": 2548,
      "ereg": 2549,
      "csog": 2550,
      "gyon": 2551,
      "kiemel": 2552,
      "vagyon": 2553,
      "bí": 2554,
      "gi": 2555,
      "kult": 2556,
      "ton": 2557,
      "ví": 2558,
      "yű": 2559,
      "áskodik": 2560,
      "élkedik": 2561,
      "felső": 2562,
      "török": 2563,
      "menny": 2564,
      "gyilkos": 2565,
      "tulajd": 2566,
      "Ar": 2567,
      "Er": 2568,
      "káb": 2569,
      "mi": 2570,
      "rö": 2571,
      "so": 2572,
      "ern": 2573,
      "nit": 2574,
      "áttekint": 2575,
      "ázó": 2576,
      "idős": 2577,
      "zsin": 2578,
      "anyol": 2579,
      "kező": 2580,
      "kommun": 2581,
      "ügyfél": 2582,
      "villám": 2583,
      "gerinc": 2584,
      "demokrat": 2585,
      "csíp": 2586,
      "mutató": 2587,
      "semmis": 2588,
      "kem": 2589,
      "gyáz": 2590,
      "tanú": 2591,
      "bord": 2592,
      "vigyáz": 2593,
      "elme": 2594,
      "számlál": 2595,
      "tized": 2596,
      "ozdít": 2597,
      "otos": 2598,
      "baba": 2599,
      "program": 2600,
      "elmozdít": 2601,
      "erjeszt": 2602,
      "szük": 2603,
      "akozik": 2604,
      "oni": 2605,
      "vely": 2606,
      "aszkodik": 2607,
      "nemű": 2608,
      "kozmet": 2609,
      "hul": 2610,
      "amer": 2611,
      "lós": 2612,
      "bágy": 2613,
      "dis": 2614,
      "duz": 2615,
      "full": 2616,
      "zül": 2617,
      "elhelyez": 2618,
      "egyű": 2619,
      "lebb": 2620,
      "hajl": 2621,
      "anyar": 2622,
      "paran": 2623,
      "párol": 2624,
      "fonny": 2625,
      "ketté": 2626,
      "csügg": 2627,
      "duzz": 2628,
      "lebbez": 2629,
      "tatlan": 2630,
      "szeret": 2631,
      "indul": 2632,
      "gyalog": 2633,
      "trón": 2634,
      "tra": 2635,
      "enisz": 2636,
      "gazdag": 2637,
      "feny": 2638,
      "uni": 2639,
      "alát": 2640,
      "alszik": 2641,
      "apát": 2642,
      "ázis": 2643,
      "vonz": 2644,
      "kezés": 2645,
      "ábrán": 2646,
      "pót": 2647,
      "kab": 2648,
      "kenyér": 2649,
      "lon": 2650,
      "ling": 2651,
      "löv": 2652,
      "mirigy": 2653,
      "nár": 2654,
      "pé": 2655,
      "pang": 2656,
      "stan": 2657,
      "túra": 2658,
      "ental": 2659,
      "alizáció": 2660,
      "atórium": 2661,
      "eráció": 2662,
      "érem": 2663,
      "csig": 2664,
      "árium": 2665,
      "esés": 2666,
      "adal": 2667,
      "áncs": 2668,
      "szerv": 2669,
      "szerelő": 2670,
      "ámia": 2671,
      "állás": 2672,
      "újság": 2673,
      "temény": 2674,
      "atlanság": 2675,
      "számla": 2676,
      "oszkóp": 2677,
      "tünd": 2678,
      "szíj": 2679,
      "mérnök": 2680,
      "ogatás": 2681,
      "kártya": 2682,
      "ismeret": 2683,
      "csere": 2684,
      "kodás": 2685,
      "szabadság": 2686,
      "szólás": 2687,
      "híd": 2688,
      "ruha": 2689,
      "burkol": 2690,
      "ékenység": 2691,
      "medve": 2692,
      "ajándék": 2693,
      "nyúlvány": 2694,
      "tündér": 2695,
      "bon": 2696,
      "jk": 2697,
      "sö": 2698,
      "sam": 2699,
      "elől": 2700,
      "erek": 2701,
      "igény": 2702,
      "koron": 2703,
      "járat": 2704,
      "tapint": 2705,
      "léleg": 2706,
      "csomag": 2707,
      "máng": 2708,
      "neg": 2709,
      "nóder": 2710,
      "ph": 2711,
      "pik": 2712,
      "paszt": 2713,
      "rüh": 2714,
      "sál": 2715,
      "sli": 2716,
      "snóder": 2717,
      "zi": 2718,
      "ziszt": 2719,
      "zeng": 2720,
      "sztat": 2721,
      "hatás": 2722,
      "vacsor": 2723,
      "esztel": 2724,
      "szabot": 2725,
      "tartóz": 2726,
      "elektrom": 2727,
      "lelki": 2728,
      "kred": 2729,
      "fecs": 2730,
      "erősít": 2731,
      "engedély": 2732,
      "riaszt": 2733,
      "másol": 2734,
      "alkohol": 2735,
      "jobb": 2736,
      "kőztet": 2737,
      "mí": 2738,
      "nöz": 2739,
      "tesz": 2740,
      "iktat": 2741,
      "oroz": 2742,
      "csörög": 2743,
      "megvesz": 2744,
      "javít": 2745,
      "zsíroz": 2746,
      "lepl": 2747,
      "endez": 2748,
      "építés": 2749,
      "vetkőztet": 2750,
      "földi": 2751,
      "ványoz": 2752,
      "letez": 2753,
      "ájt": 2754,
      "végig": 2755,
      "ágyaz": 2756,
      "betűz": 2757,
      "mányol": 2758,
      "ellent": 2759,
      "stír": 2760,
      "csinál": 2761,
      "díjaz": 2762,
      "nyergel": 2763,
      "ragoz": 2764,
      "fektet": 2765,
      "függeszt": 2766,
      "támaszt": 2767,
      "hitet": 2768,
      "határol": 2769,
      "bocsájt": 2770,
      "dorgál": 2771,
      "érdez": 2772,
      "kopaszt": 2773,
      "futtat": 2774,
      "automat": 2775,
      "isten": 2776,
      "iasít": 2777,
      "vezérel": 2778,
      "fátyoloz": 2779,
      "akadályoz": 2780,
      "posztol": 2781,
      "szilárdít": 2782,
      "pedikűröz": 2783,
      "furcsáll": 2784,
      "organizál": 2785,
      "leplez": 2786,
      "etikus": 2787,
      "uli": 2788,
      "bég": 2789,
      "reng": 2790,
      "szan": 2791,
      "halad": 2792,
      "kelet": 2793,
      "szarv": 2794,
      "fekete": 2795,
      "rí": 2796,
      "uzs": 2797,
      "ötven": 2798,
      "farkas": 2799,
      "villamos": 2800,
      "gyül": 2801,
      "ézia": 2802,
      "idegen": 2803,
      "pih": 2804,
      "radi": 2805,
      "siker": 2806,
      "funk": 2807,
      "csáb": 2808,
      "pros": 2809,
      "ügyi": 2810,
      "játszik": 2811,
      "szállás": 2812,
      "konzul": 2813,
      "péld": 2814,
      "érc": 2815,
      "érzés": 2816,
      "omba": 2817,
      "adag": 2818,
      "megenged": 2819,
      "varró": 2820,
      "sütő": 2821,
      "fortély": 2822,
      "geszt": 2823,
      "lin": 2824,
      "tú": 2825,
      "oztatás": 2826,
      "incs": 2827,
      "ilab": 2828,
      "átr": 2829,
      "mac": 2830,
      "operál": 2831,
      "dif": 2832,
      "port": 2833,
      "sziget": 2834,
      "cigány": 2835,
      "fésül": 2836,
      "cell": 2837,
      "ff": 2838,
      "fé": 2839,
      "musz": 2840,
      "pre": 2841,
      "sátor": 2842,
      "atom": 2843,
      "eges": 2844,
      "érium": 2845,
      "nyir": 2846,
      "arin": 2847,
      "igr": 2848,
      "vágó": 2849,
      "oter": 2850,
      "citrom": 2851,
      "iméter": 2852,
      "zsol": 2853,
      "szerzés": 2854,
      "központ": 2855,
      "borot": 2856,
      "ugró": 2857,
      "techn": 2858,
      "mini": 2859,
      "kígyó": 2860,
      "mérs": 2861,
      "lődés": 2862,
      "mosó": 2863,
      "szerűtlenség": 2864,
      "horg": 2865,
      "munkás": 2866,
      "csónak": 2867,
      "fejlesztés": 2868,
      "fenntart": 2869,
      "énekes": 2870,
      "selyem": 2871,
      "bonyol": 2872,
      "deszka": 2873,
      "dó": 2874,
      "fig": 2875,
      "hossz": 2876,
      "süt": 2877,
      "zagy": 2878,
      "elbeszél": 2879,
      "nyír": 2880,
      "felvon": 2881,
      "prez": 2882,
      "integ": 2883,
      "költ": 2884,
      "mozdít": 2885,
      "metél": 2886,
      "bűvöl": 2887,
      "lélek": 2888,
      "haszn": 2889,
      "birtok": 2890,
      "pity": 2891,
      "csodál": 2892,
      "szentségtelenít": 2893,
      "elvár": 2894,
      "alsó": 2895,
      "ara": 2896,
      "megél": 2897,
      "megtekint": 2898,
      "ködő": 2899,
      "kivált": 2900,
      "felhalmoz": 2901,
      "felbont": 2902,
      "itikus": 2903,
      "fogoly": 2904,
      "előfizet": 2905,
      "szabvány": 2906,
      "kapar": 2907,
      "mentál": 2908,
      "gondoz": 2909,
      "sérteget": 2910,
      "vizion": 2911,
      "békül": 2912,
      "összeköt": 2913,
      "módosít": 2914,
      "minősít": 2915,
      "ágaz": 2916,
      "térítés": 2917,
      "exuális": 2918,
      "ániai": 2919,
      "Gy": 2920,
      "ali": 2921,
      "ard": 2922,
      "rej": 2923,
      "anda": 2924,
      "méret": 2925,
      "szükség": 2926,
      "ötö": 2927,
      "szervezet": 2928,
      "obil": 2929,
      "oktató": 2930,
      "orog": 2931,
      "állik": 2932,
      "düh": 2933,
      "görög": 2934,
      "szerencs": 2935,
      "acs": 2936,
      "sepr": 2937,
      "ác": 2938,
      "rava": 2939,
      "ília": 2940,
      "bö": 2941,
      "assz": 2942,
      "szorong": 2943,
      "ecet": 2944,
      "vegő": 2945,
      "sek": 2946,
      "félték": 2947,
      "ramm": 2948,
      "féltékeny": 2949,
      "hiszt": 2950,
      "hős": 2951,
      "ón": 2952,
      "okk": 2953,
      "megbocsát": 2954,
      "tri": 2955,
      "temet": 2956,
      "rák": 2957,
      "minden": 2958,
      "kölcs": 2959,
      "részes": 2960,
      "farag": 2961,
      "rokon": 2962,
      "környezet": 2963,
      "elektron": 2964,
      "tulajdon": 2965,
      "Al": 2966,
      "Bar": 2967,
      "kad": 2968,
      "tány": 2969,
      "veget": 2970,
      "ana": 2971,
      "oktatás": 2972,
      "orosz": 2973,
      "omos": 2974,
      "baszt": 2975,
      "infl": 2976,
      "kimond": 2977,
      "felvétel": 2978,
      "zsú": 2979,
      "zsong": 2980,
      "örgő": 2981,
      "építő": 2982,
      "özik": 2983,
      "boros": 2984,
      "képzés": 2985,
      "számít": 2986,
      "szion": 2987,
      "szket": 2988,
      "spanyol": 2989,
      "vitat": 2990,
      "hatóság": 2991,
      "szárny": 2992,
      "ápoló": 2993,
      "szálló": 2994,
      "lovas": 2995,
      "büntető": 2996,
      "azonosít": 2997,
      "optim": 2998,
      "af": 2999,
      "önk": 3000,
      "asszoci": 3001,
      "telít": 3002,
      "illál": 3003,
      "kisebb": 3004,
      "gyarap": 3005,
      "parti": 3006,
      "szándék": 3007,
      "máj": 3008,
      "poz": 3009,
      "elutasít": 3010,
      "elvégez": 3011,
      "álom": 3012,
      "értelmez": 3013,
      "megaláz": 3014,
      "észlel": 3015,
      "kezel": 3016,
      "városi": 3017,
      "létre": 3018,
      "kutató": 3019,
      "bód": 3020,
      "erdő": 3021,
      "orter": 3022,
      "nyik": 3023,
      "nyog": 3024,
      "ölgy": 3025,
      "vályog": 3026,
      "mondat": 3027,
      "titkár": 3028,
      "grá": 3029,
      "rop": 3030,
      "vódik": 3031,
      "ődik": 3032,
      "ekezik": 3033,
      "felül": 3034,
      "fogat": 3035,
      "katt": 3036,
      "egyezik": 3037,
      "fu": 3038,
      "ságos": 3039,
      "eskü": 3040,
      "kun": 3041,
      "árs": 3042,
      "ejű": 3043,
      "tábor": 3044,
      "vidék": 3045,
      "haza": 3046,
      "parancsol": 3047,
      "dű": 3048,
      "tenisz": 3049,
      "zar": 3050,
      "olf": 3051,
      "inger": 3052,
      "spek": 3053,
      "hervad": 3054,
      "cionál": 3055,
      "oxid": 3056,
      "cseléd": 3057,
      "egyetem": 3058,
      "mártír": 3059,
      "eum": 3060,
      "ecske": 3061,
      "fész": 3062,
      "git": 3063,
      "iál": 3064,
      "kond": 3065,
      "kutya": 3066,
      "zúg": 3067,
      "ékes": 3068,
      "bejelent": 3069,
      "velés": 3070,
      "egybek": 3071,
      "hallat": 3072,
      "összegyű": 3073,
      "kocs": 3074,
      "szóró": 3075,
      "nemes": 3076,
      "vágás": 3077,
      "uhog": 3078,
      "dohány": 3079,
      "dül": 3080,
      "dám": 3081,
      "déd": 3082,
      "fasz": 3083,
      "gól": 3084,
      "hú": 3085,
      "kaj": 3086,
      "kony": 3087,
      "kart": 3088,
      "kád": 3089,
      "lár": 3090,
      "lom": 3091,
      "liszt": 3092,
      "lánc": 3093,
      "pog": 3094,
      "pilla": 3095,
      "rika": 3096,
      "rizs": 3097,
      "tíz": 3098,
      "szon": 3099,
      "etta": 3100,
      "etria": 3101,
      "ikum": 3102,
      "alitás": 3103,
      "org": 3104,
      "csok": 3105,
      "csár": 3106,
      "nye": 3107,
      "nyál": 3108,
      "ítélet": 3109,
      "árus": 3110,
      "gyló": 3111,
      "edli": 3112,
      "adalom": 3113,
      "eizmus": 3114,
      "inizmus": 3115,
      "ámpa": 3116,
      "irodalom": 3117,
      "állomás": 3118,
      "kagyló": 3119,
      "utca": 3120,
      "özvegy": 3121,
      "ugrás": 3122,
      "ipt": 3123,
      "törés": 3124,
      "ízis": 3125,
      "harang": 3126,
      "enye": 3127,
      "unoka": 3128,
      "rium": 3129,
      "körte": 3130,
      "torony": 3131,
      "számítás": 3132,
      "osítás": 3133,
      "áda": 3134,
      "rendőr": 3135,
      "ágyú": 3136,
      "járás": 3137,
      "barack": 3138,
      "ocska": 3139,
      "gyógyász": 3140,
      "ódás": 3141,
      "üzen": 3142,
      "párna": 3143,
      "oft": 3144,
      "menet": 3145,
      "ball": 3146,
      "valószín": 3147,
      "szalag": 3148,
      "ferencia": 3149,
      "nyereg": 3150,
      "getés": 3151,
      "fülke": 3152,
      "klor": 3153,
      "bútor": 3154,
      "aláta": 3155,
      "darázs": 3156,
      "szilon": 3157,
      "futás": 3158,
      "golyó": 3159,
      "kocka": 3160,
      "intézet": 3161,
      "ólyom": 3162,
      "betegség": 3163,
      "videó": 3164,
      "bogár": 3165,
      "fodrász": 3166,
      "szépség": 3167,
      "tartalom": 3168,
      "kereskedelem": 3169,
      "börtö": 3170,
      "dös": 3171,
      "fet": 3172,
      "fus": 3173,
      "kás": 3174,
      "mész": 3175,
      "natur": 3176,
      "pusz": 3177,
      "süveg": 3178,
      "szink": 3179,
      "enn": 3180,
      "megtéveszt": 3181,
      "köt": 3182,
      "civil": 3183,
      "javas": 3184,
      "amp": 3185,
      "prog": 3186,
      "válasz": 3187,
      "lektor": 3188,
      "zetes": 3189,
      "kímél": 3190,
      "friz": 3191,
      "főz": 3192,
      "nyomor": 3193,
      "záradék": 3194,
      "struk": 3195,
      "pub": 3196,
      "sarok": 3197,
      "vigasztal": 3198,
      "norvég": 3199,
      "cáfol": 3200,
      "lökdös": 3201,
      "előlép": 3202,
      "koronáz": 3203,
      "Kr": 3204,
      "bez": 3205,
      "dúsít": 3206,
      "hop": 3207,
      "laszt": 3208,
      "tán": 3209,
      "szend": 3210,
      "szőr": 3211,
      "szúr": 3212,
      "elveszt": 3213,
      "elnevez": 3214,
      "elrejt": 3215,
      "akkred": 3216,
      "áli": 3217,
      "egalizál": 3218,
      "olvaszt": 3219,
      "árver": 3220,
      "edezett": 3221,
      "megjelöl": 3222,
      "megszüntet": 3223,
      "bevon": 3224,
      "illeszt": 3225,
      "kirak": 3226,
      "kitüntet": 3227,
      "kihangosít": 3228,
      "feltár": 3229,
      "felkér": 3230,
      "feltüntet": 3231,
      "urban": 3232,
      "jelleg": 3233,
      "tanúsít": 3234,
      "ászó": 3235,
      "előhív": 3236,
      "előterjeszt": 3237,
      "borít": 3238,
      "hajtó": 3239,
      "ugrat": 3240,
      "varrat": 3241,
      "töredezett": 3242,
      "kódol": 3243,
      "elmulaszt": 3244,
      "szemel": 3245,
      "szemer": 3246,
      "vontat": 3247,
      "kong": 3248,
      "ömleszt": 3249,
      "köly": 3250,
      "park": 3251,
      "ágyúz": 3252,
      "exponál": 3253,
      "melíroz": 3254,
      "vakáció": 3255,
      "izsák": 3256,
      "tapos": 3257,
      "csúsztat": 3258,
      "jogosít": 3259,
      "felhív": 3260,
      "létesít": 3261,
      "palás": 3262,
      "hamvaszt": 3263,
      "nyugtat": 3264,
      "bekapcsol": 3265,
      "csatol": 3266,
      "kinéz": 3267,
      "telefonál": 3268,
      "biztonság": 3269,
      "érzék": 3270,
      "finansz": 3271,
      "tartósít": 3272,
      "privat": 3273,
      "bírál": 3274,
      "lenyomat": 3275,
      "csempéz": 3276,
      "korcsoly": 3277,
      "lezár": 3278,
      "foglalkoztat": 3279,
      "koboz": 3280,
      "aktivál": 3281,
      "megkérdez": 3282,
      "hátraküld": 3283,
      "sűrít": 3284,
      "diagnosztizál": 3285,
      "mángor": 3286,
      "finanszíroz": 3287,
      "alt": 3288,
      "agos": 3289,
      "észak": 3290,
      "vári": 3291,
      "költség": 3292,
      "dig": 3293,
      "ho": 3294,
      "áv": 3295,
      "idétlen": 3296,
      "közösség": 3297,
      "tévé": 3298,
      "dokumentál": 3299,
      "cég": 3300,
      "lakik": 3301,
      "szapor": 3302,
      "lass": 3303,
      "hüly": 3304,
      "inn": 3305,
      "haldok": 3306,
      "tömör": 3307,
      "humor": 3308,
      "forr": 3309,
      "számol": 3310,
      "marok": 3311,
      "Mik": 3312,
      "för": 3313,
      "hén": 3314,
      "kanyar": 3315,
      "kefe": 3316,
      "szerűtlen": 3317,
      "vásárló": 3318,
      "szuper": 3319,
      "bűnöz": 3320,
      "pel": 3321,
      "ren": 3322,
      "sét": 3323,
      "vul": 3324,
      "öc": 3325,
      "fejezés": 3326,
      "kezdő": 3327,
      "uny": 3328,
      "megny": 3329,
      "feltétel": 3330,
      "uralk": 3331,
      "undor": 3332,
      "becsület": 3333,
      "bűnt": 3334,
      "szlová": 3335,
      "objektív": 3336,
      "báb": 3337,
      "bölcs": 3338,
      "lux": 3339,
      "rand": 3340,
      "zék": 3341,
      "akt": 3342,
      "arab": 3343,
      "abszt": 3344,
      "forrás": 3345,
      "angol": 3346,
      "mérő": 3347,
      "tudós": 3348,
      "regény": 3349,
      "fogyat": 3350,
      "saját": 3351,
      "cikl": 3352,
      "bossz": 3353,
      "comb": 3354,
      "gim": 3355,
      "kosság": 3356,
      "pasz": 3357,
      "pip": 3358,
      "pli": 3359,
      "sm": 3360,
      "sutt": 3361,
      "íva": 3362,
      "óp": 3363,
      "óca": 3364,
      "ütő": 3365,
      "üst": 3366,
      "szú": 3367,
      "elvisel": 3368,
      "akció": 3369,
      "alkirály": 3370,
      "erk": 3371,
      "onstr": 3372,
      "árny": 3373,
      "győz": 3374,
      "ezred": 3375,
      "eset": 3376,
      "megmagyaráz": 3377,
      "eis": 3378,
      "otel": 3379,
      "kiber": 3380,
      "iment": 3381,
      "impres": 3382,
      "terület": 3383,
      "macs": 3384,
      "táció": 3385,
      "asznál": 3386,
      "kezet": 3387,
      "che": 3388,
      "képző": 3389,
      "látás": 3390,
      "üzem": 3391,
      "oltó": 3392,
      "tagad": 3393,
      "mentő": 3394,
      "választó": 3395,
      "felhasznál": 3396,
      "méter": 3397,
      "mondás": 3398,
      "homlok": 3399,
      "viszon": 3400,
      "hozzát": 3401,
      "sebez": 3402,
      "pászt": 3403,
      "melegítő": 3404,
      "szövő": 3405,
      "tervező": 3406,
      "század": 3407,
      "háromszög": 3408,
      "szökő": 3409,
      "dupl": 3410,
      "gyártás": 3411,
      "csokoládé": 3412,
      "gyűrű": 3413,
      "búza": 3414,
      "led": 3415,
      "túr": 3416,
      "óv": 3417,
      "elhagy": 3418,
      "elsüllyeszt": 3419,
      "alma": 3420,
      "emészt": 3421,
      "adminiszt": 3422,
      "megfizet": 3423,
      "megközelít": 3424,
      "uka": 3425,
      "izma": 3426,
      "befog": 3427,
      "beavat": 3428,
      "kiválaszt": 3429,
      "felejt": 3430,
      "itív": 3431,
      "ajt": 3432,
      "távir": 3433,
      "indokol": 3434,
      "regiszt": 3435,
      "pótol": 3436,
      "izzad": 3437,
      "diszkrim": 3438,
      "zsibbaszt": 3439,
      "hasonlít": 3440,
      "kút": 3441,
      "szád": 3442,
      "áru": 3443,
      "gyúl": 3444,
      "megvásárol": 3445,
      "beállít": 3446,
      "beszerez": 3447,
      "kijelöl": 3448,
      "kimutat": 3449,
      "felújít": 3450,
      "törté": 3451,
      "féle": 3452,
      "szentel": 3453,
      "változtat": 3454,
      "alapoz": 3455,
      "ackoz": 3456,
      "palackoz": 3457,
      "sík": 3458,
      "hallgató": 3459,
      "post": 3460,
      "gyomor": 3461,
      "hitelesít": 3462,
      "értékesít": 3463,
      "veszélyeztet": 3464,
      "kizár": 3465,
      "k.": 3466,
      "isztán": 3467,
      "eszed": 3468,
      "fajta": 3469,
      "At": 3470,
      "Ti": 3471,
      "alg": 3472,
      "omp": 3473,
      "adu": 3474,
      "tani": 3475,
      "sárga": 3476,
      "huszonk": 3477,
      "holt": 3478,
      "előadó": 3479,
      "cionális": 3480,
      "lasz": 3481,
      "költő": 3482,
      "hem": 3483,
      "hág": 3484,
      "jus": 3485,
      "atal": 3486,
      "ola": 3487,
      "abar": 3488,
      "búvár": 3489,
      "kállik": 3490,
      "rám": 3491,
      "elhangzik": 3492,
      "éllik": 3493,
      "osul": 3494,
      "ogó": 3495,
      "nállik": 3496,
      "itor": 3497,
      "újul": 3498,
      "lódik": 3499,
      "jong": 3500,
      "belép": 3501,
      "barnállik": 3502,
      "tarkállik": 3503,
      "derül": 3504,
      "szólal": 3505,
      "usztrál": 3506,
      "juhar": 3507,
      "halasztódik": 3508,
      "szökell": 3509,
      "szürkél": 3510,
      "csorog": 3511,
      "nyilvánul": 3512,
      "feketéllik": 3513,
      "pusztul": 3514,
      "valósul": 3515,
      "szürkéllik": 3516,
      "lomb": 3517,
      "mez": 3518,
      "via": 3519,
      "indi": 3520,
      "felismer": 3521,
      "buz": 3522,
      "zsarnok": 3523,
      "ah": 3524,
      "fra": 3525,
      "ener": 3526,
      "alista": 3527,
      "anarch": 3528,
      "dipl": 3529,
      "közvet": 3530,
      "közlek": 3531,
      "tevő": 3532,
      "ongó": 3533,
      "kapcs": 3534,
      "derék": 3535,
      "csatlak": 3536,
      "egyenlő": 3537,
      "mandzs": 3538,
      "jövendő": 3539,
      "szerződés": 3540,
      "domin": 3541,
      "bun": 3542,
      "dam": 3543,
      "evő": 3544,
      "nam": 3545,
      "ót": 3546,
      "álm": 3547,
      "egziszt": 3548,
      "embri": 3549,
      "megold": 3550,
      "vac": 3551,
      "iszta": 3552,
      "kód": 3553,
      "kari": 3554,
      "képes": 3555,
      "krist": 3556,
      "kateg": 3557,
      "kereső": 3558,
      "szabadul": 3559,
      "légi": 3560,
      "csók": 3561,
      "hozzász": 3562,
      "modern": 3563,
      "szolgáló": 3564,
      "iskolás": 3565,
      "vonatkoz": 3566,
      "árius": 3567,
      "szinon": 3568,
      "minőség": 3569,
      "popul": 3570,
      "kockáz": 3571,
      "kábító": 3572,
      "töredezettség": 3573,
      "kristály": 3574,
      "kent": 3575,
      "zett": 3576,
      "kötek": 3577,
      "ülep": 3578,
      "felnő": 3579,
      "terv": 3580,
      "kacsa": 3581,
      "isztikus": 3582,
      "helyett": 3583,
      "kedő": 3584,
      "pali": 3585,
      "növekedik": 3586,
      "csökkent": 3587,
      "peng": 3588,
      "ékos": 3589,
      "ilis": 3590,
      "abba": 3591,
      "olvasó": 3592,
      "hölgy": 3593,
      "aláb": 3594,
      "árga": 3595,
      "prok": 3596,
      "tanító": 3597,
      "nyelvész": 3598,
      "album": 3599,
      "hém": 3600,
      "mászik": 3601,
      "röf": 3602,
      "elpat": 3603,
      "elpárol": 3604,
      "urit": 3605,
      "tyol": 3606,
      "ácsol": 3607,
      "légy": 3608,
      "zuhany": 3609,
      "eljut": 3610,
      "elpárolog": 3611,
      "héz": 3612,
      "tül": 3613,
      "érkezik": 3614,
      "nehéz": 3615,
      "agyar": 3616,
      "hízik": 3617,
      "elégedik": 3618,
      "erősödik": 3619,
      "ket": 3620,
      "őzik": 3621,
      "közbe": 3622,
      "búcsú": 3623,
      "golf": 3624,
      "káp": 3625,
      "pü": 3626,
      "bólint": 3627,
      "egybe": 3628,
      "telik": 3629,
      "spök": 3630,
      "modell": 3631,
      "ábránd": 3632,
      "püspök": 3633,
      "bim": 3634,
      "nal": 3635,
      "rin": 3636,
      "étel": 3637,
      "ártatlan": 3638,
      "ige": 3639,
      "ajka": 3640,
      "entes": 3641,
      "táp": 3642,
      "tanár": 3643,
      "képernyő": 3644,
      "hiba": 3645,
      "párt": 3646,
      "társaság": 3647,
      "ütköz": 3648,
      "támasz": 3649,
      "resszív": 3650,
      "méhész": 3651,
      "fenyeget": 3652,
      "gitár": 3653,
      "bimbó": 3654,
      "Dom": 3655,
      "begy": 3656,
      "bli": 3657,
      "cé": 3658,
      "cal": 3659,
      "céd": 3660,
      "fia": 3661,
      "gus": 3662,
      "galom": 3663,
      "gém": 3664,
      "hő": 3665,
      "lény": 3666,
      "láng": 3667,
      "láda": 3668,
      "mit": 3669,
      "milli": 3670,
      "nusz": 3671,
      "oc": 3672,
      "pint": 3673,
      "smar": 3674,
      "saláta": 3675,
      "tég": 3676,
      "ucs": 3677,
      "uza": 3678,
      "vért": 3679,
      "yka": 3680,
      "zió": 3681,
      "áf": 3682,
      "ók": 3683,
      "úgó": 3684,
      "szus": 3685,
      "szoft": 3686,
      "ikon": 3687,
      "ikáció": 3688,
      "anizmus": 3689,
      "atás": 3690,
      "atart": 3691,
      "atúra": 3692,
      "árda": 3693,
      "gyu": 3694,
      "élés": 3695,
      "élelmi": 3696,
      "ometria": 3697,
      "edű": 3698,
      "igó": 3699,
      "adomány": 3700,
      "ostor": 3701,
      "osodás": 3702,
      "odor": 3703,
      "tax": 3704,
      "köb": 3705,
      "ináció": 3706,
      "ulátor": 3707,
      "átia": 3708,
      "apka": 3709,
      "zsal": 3710,
      "zság": 3711,
      "ottság": 3712,
      "szerész": 3713,
      "szerep": 3714,
      "agd": 3715,
      "asztron": 3716,
      "áma": 3717,
      "leány": 3718,
      "hatalom": 3719,
      "benz": 3720,
      "irály": 3721,
      "állítás": 3722,
      "entáció": 3723,
      "kaz": 3724,
      "prér": 3725,
      "öröm": 3726,
      "örvény": 3727,
      "táb": 3728,
      "opera": 3729,
      "halló": 3730,
      "ászló": 3731,
      "tetű": 3732,
      "ívum": 3733,
      "illat": 3734,
      "ella": 3735,
      "eszkal": 3736,
      "elyű": 3737,
      "vetés": 3738,
      "újítás": 3739,
      "alakulás": 3740,
      "tehén": 3741,
      "haris": 3742,
      "rácia": 3743,
      "vasút": 3744,
      "üreg": 3745,
      "paral": 3746,
      "vízió": 3747,
      "kanna": 3748,
      "mosás": 3749,
      "formáció": 3750,
      "mozgás": 3751,
      "tudás": 3752,
      "készítés": 3753,
      "menta": 3754,
      "nyomás": 3755,
      "váltó": 3756,
      "fecske": 3757,
      "metsz": 3758,
      "katona": 3759,
      "mese": 3760,
      "támadás": 3761,
      "gazda": 3762,
      "léc": 3763,
      "kamra": 3764,
      "sértés": 3765,
      "asztalos": 3766,
      "ünet": 3767,
      "gyoró": 3768,
      "szájpad": 3769,
      "festés": 3770,
      "báró": 3771,
      "ajánlat": 3772,
      "mandula": 3773,
      "sajt": 3774,
      "béke": 3775,
      "birs": 3776,
      "szoknya": 3777,
      "konty": 3778,
      "kakas": 3779,
      "posta": 3780,
      "bolya": 3781,
      "bolygó": 3782,
      "sereg": 3783,
      "folklor": 3784,
      "ativitás": 3785,
      "cikk": 3786,
      "mama": 3787,
      "ólyag": 3788,
      "kutatás": 3789,
      "motor": 3790,
      "ceruza": 3791,
      "fúró": 3792,
      "boksz": 3793,
      "fodor": 3794,
      "művészet": 3795,
      "igazság": 3796,
      "szirt": 3797,
      "cápa": 3798,
      "ellátás": 3799,
      "hegedű": 3800,
      "villany": 3801,
      "bányász": 3802,
      "szerkesztő": 3803,
      "harmonika": 3804,
      "csigolya": 3805,
      "nyirok": 3806,
      "fészek": 3807,
      "orgona": 3808,
      "pásztor": 3809,
      "történész": 3810,
      "smaragd": 3811,
      "szoftver": 3812,
      "élelmiszer": 3813,
      "fag": 3814,
      "folt": 3815,
      "hel": 3816,
      "hint": 3817,
      "mobil": 3818,
      "pis": 3819,
      "pum": 3820,
      "rúg": 3821,
      "ster": 3822,
      "tob": 3823,
      "tegez": 3824,
      "öntet": 3825,
      "űgöz": 3826,
      "elkövet": 3827,
      "okád": 3828,
      "eres": 3829,
      "erox": 3830,
      "gyújt": 3831,
      "megráz": 3832,
      "troll": 3833,
      "tangó": 3834,
      "ebéd": 3835,
      "engesztel": 3836,
      "ránt": 3837,
      "kontroll": 3838,
      "esti": 3839,
      "beton": 3840,
      "szolid": 3841,
      "csicser": 3842,
      "tudat": 3843,
      "rágalmaz": 3844,
      "gyűjt": 3845,
      "igazol": 3846,
      "muzs": 3847,
      "deter": 3848,
      "lenyűgöz": 3849,
      "enciál": 3850,
      "szinkron": 3851,
      "civilizál": 3852,
      "publik": 3853,
      "steril": 3854,
      "beid": 3855,
      "bömb": 3856,
      "ded": 3857,
      "dos": 3858,
      "evak": 3859,
      "heb": 3860,
      "huhog": 3861,
      "kít": 3862,
      "kizsák": 3863,
      "legyez": 3864,
      "lékel": 3865,
      "pp": 3866,
      "píroz": 3867,
      "röz": 3868,
      "ront": 3869,
      "vizál": 3870,
      "vart": 3871,
      "éhez": 3872,
      "úszkál": 3873,
      "elvesz": 3874,
      "elnyer": 3875,
      "első": 3876,
      "eltüntet": 3877,
      "elhallgat": 3878,
      "elküld": 3879,
      "elárul": 3880,
      "elhatároz": 3881,
      "elmagyaráz": 3882,
      "elsötét": 3883,
      "elszenved": 3884,
      "elkülönít": 3885,
      "elcsügg": 3886,
      "eküld": 3887,
      "akar": 3888,
      "akatol": 3889,
      "aknáz": 3890,
      "alvaszt": 3891,
      "okít": 3892,
      "erű": 3893,
      "ereszt": 3894,
      "érlel": 3895,
      "orizál": 3896,
      "ordít": 3897,
      "csáz": 3898,
      "aroz": 3899,
      "arad": 3900,
      "áraszt": 3901,
      "ozol": 3902,
      "esd": 3903,
      "kétell": 3904,
      "értesít": 3905,
      "megír": 3906,
      "megun": 3907,
      "megrak": 3908,
      "megtart": 3909,
      "megkár": 3910,
      "megvéd": 3911,
      "megnyer": 3912,
      "megmond": 3913,
      "megnéz": 3914,
      "megtanul": 3915,
      "megtest": 3916,
      "megküld": 3917,
      "megnyit": 3918,
      "megtervez": 3919,
      "meggyógyít": 3920,
      "megvizsgál": 3921,
      "megújít": 3922,
      "megszerez": 3923,
      "megkezd": 3924,
      "meglátogat": 3925,
      "megtárgyal": 3926,
      "megőriz": 3927,
      "megfigyel": 3928,
      "megjegyez": 3929,
      "megnehezít": 3930,
      "megtorol": 3931,
      "megszakít": 3932,
      "megfélemlít": 3933,
      "megkövetel": 3934,
      "meggyaláz": 3935,
      "megállapít": 3936,
      "meggátol": 3937,
      "megpillant": 3938,
      "megfogalmaz": 3939,
      "megteremt": 3940,
      "megakadályoz": 3941,
      "őll": 3942,
      "rabol": 3943,
      "ésszerűsít": 3944,
      "odáz": 3945,
      "eint": 3946,
      "befizet": 3947,
      "befed": 3948,
      "bevisz": 3949,
      "beépít": 3950,
      "beszed": 3951,
      "befogad": 3952,
      "bebizonyít": 3953,
      "beágyaz": 3954,
      "ilt": 3955,
      "usál": 3956,
      "citál": 3957,
      "átver": 3958,
      "átformál": 3959,
      "áthangol": 3960,
      "átrendez": 3961,
      "apaszt": 3962,
      "realizál": 3963,
      "reformál": 3964,
      "kiír": 3965,
      "kitör": 3966,
      "kihagy": 3967,
      "kiment": 3968,
      "kitűz": 3969,
      "kifizet": 3970,
      "kifejleszt": 3971,
      "kiált": 3972,
      "kigyógyít": 3973,
      "kialakít": 3974,
      "kitölt": 3975,
      "kifejt": 3976,
      "kihasznál": 3977,
      "kibővít": 3978,
      "kitilt": 3979,
      "kiderít": 3980,
      "kiegészít": 3981,
      "felez": 3982,
      "felver": 3983,
      "feltart": 3984,
      "felkeres": 3985,
      "feljelent": 3986,
      "felállít": 3987,
      "felépít": 3988,
      "felnyit": 3989,
      "felkészít": 3990,
      "felruház": 3991,
      "felnagyít": 3992,
      "felsorol": 3993,
      "felgyorsít": 3994,
      "felszólít": 3995,
      "felfedez": 3996,
      "felajánl": 3997,
      "felvarr": 3998,
      "felkínál": 3999,
      "ideküld": 4000,
      "itat": 4001,
      "tataroz": 4002,
      "egyed": 4003,
      "egyesít": 4004,
      "egyszerűsít": 4005,
      "ummog": 4006,
      "lejár": 4007,
      "lefokoz": 4008,
      "leakaszt": 4009,
      "lefátyoloz": 4010,
      "benhagy": 4011,
      "tervel": 4012,
      "lenéz": 4013,
      "kavar": 4014,
      "primál": 4015,
      "ösít": 4016,
      "vajaz": 4017,
      "jelel": 4018,
      "halogat": 4019,
      "land": 4020,
      "tárol": 4021,
      "társít": 4022,
      "tárcsáz": 4023,
      "obban": 4024,
      "előállít": 4025,
      "elősegít": 4026,
      "tetet": 4027,
      "aszal": 4028,
      "verifikál": 4029,
      "közöl": 4030,
      "hajigál": 4031,
      "ellop": 4032,
      "ipel": 4033,
      "uszít": 4034,
      "törleszt": 4035,
      "taksál": 4036,
      "őröl": 4037,
      "őröz": 4038,
      "összegez": 4039,
      "összeszed": 4040,
      "vonít": 4041,
      "vonszol": 4042,
      "karmol": 4043,
      "képez": 4044,
      "rávág": 4045,
      "licitál": 4046,
      "ürít": 4047,
      "perdít": 4048,
      "szaval": 4049,
      "szakaszt": 4050,
      "fölkeres": 4051,
      "szélesít": 4052,
      "szélső": 4053,
      "letilt": 4054,
      "merő": 4055,
      "legesít": 4056,
      "nagyoll": 4057,
      "hangsúlyoz": 4058,
      "lekérdez": 4059,
      "sziszeg": 4060,
      "maraszt": 4061,
      "ongál": 4062,
      "kapkod": 4063,
      "berendez": 4064,
      "betesz": 4065,
      "biztat": 4066,
      "vadít": 4067,
      "dacol": 4068,
      "hisz": 4069,
      "hiúsít": 4070,
      "virál": 4071,
      "virít": 4072,
      "elemez": 4073,
      "összefog": 4074,
      "összevet": 4075,
      "összevág": 4076,
      "összehangol": 4077,
      "összeszerel": 4078,
      "ellenez": 4079,
      "visszaír": 4080,
      "visszavesz": 4081,
      "visszavág": 4082,
      "visszautasít": 4083,
      "visszafejt": 4084,
      "mozgat": 4085,
      "vakar": 4086,
      "vakít": 4087,
      "vakkant": 4088,
      "földel": 4089,
      "kérelmez": 4090,
      "növel": 4091,
      "tudakol": 4092,
      "károg": 4093,
      "szívat": 4094,
      "taglal": 4095,
      "ismertet": 4096,
      "nyomkod": 4097,
      "tékozol": 4098,
      "csapol": 4099,
      "csapkod": 4100,
      "dobál": 4101,
      "lelakatol": 4102,
      "ferál": 4103,
      "keresgél": 4104,
      "nyeldes": 4105,
      "részletez": 4106,
      "deprimál": 4107,
      "védelmez": 4108,
      "könyököl": 4109,
      "hervaszt": 4110,
      "zárat": 4111,
      "zárol": 4112,
      "gépel": 4113,
      "mellékel": 4114,
      "tarhál": 4115,
      "brummog": 4116,
      "hasogat": 4117,
      "szabadít": 4118,
      "idegesít": 4119,
      "piszkál": 4120,
      "támad": 4121,
      "vélelmez": 4122,
      "lapít": 4123,
      "későll": 4124,
      "tükröz": 4125,
      "szeletel": 4126,
      "érdemel": 4127,
      "húzkod": 4128,
      "cukroz": 4129,
      "kilép": 4130,
      "nyugtalanít": 4131,
      "füröszt": 4132,
      "üvölt": 4133,
      "beküld": 4134,
      "pontosít": 4135,
      "igazít": 4136,
      "blam": 4137,
      "blimál": 4138,
      "keresztel": 4139,
      "fakaszt": 4140,
      "rekvirál": 4141,
      "sugall": 4142,
      "sugorít": 4143,
      "találgat": 4144,
      "bőg": 4145,
      "különír": 4146,
      "titkol": 4147,
      "fehérít": 4148,
      "telepít": 4149,
      "nézeget": 4150,
      "szigetel": 4151,
      "tömköd": 4152,
      "takarít": 4153,
      "takarmányoz": 4154,
      "takarózik": 4155,
      "bálványoz": 4156,
      "tanulmányoz": 4157,
      "archivál": 4158,
      "egyenlít": 4159,
      "moderál": 4160,
      "vegyít": 4161,
      "kényeztet": 4162,
      "odavág": 4163,
      "sivít": 4164,
      "tupíroz": 4165,
      "újraír": 4166,
      "újraválaszt": 4167,
      "újraéleszt": 4168,
      "elfoglal": 4169,
      "ionizál": 4170,
      "vagdos": 4171,
      "zsibb": 4172,
      "szabályoz": 4173,
      "csipog": 4174,
      "csipked": 4175,
      "szolgáltat": 4176,
      "távolít": 4177,
      "szomorít": 4178,
      "melegít": 4179,
      "céloz": 4180,
      "restell": 4181,
      "beleért": 4182,
      "szokik": 4183,
      "kölcsönad": 4184,
      "kölcsönvesz": 4185,
      "gyilkol": 4186,
      "tettet": 4187,
      "összeken": 4188,
      "összekapcsol": 4189,
      "kellet": 4190,
      "kiküld": 4191,
      "üdvözít": 4192,
      "halasztgat": 4193,
      "passzol": 4194,
      "szublimál": 4195,
      "retusál": 4196,
      "feszít": 4197,
      "ganéz": 4198,
      "vindikál": 4199,
      "nyafog": 4200,
      "nyűgöz": 4201,
      "tárgyiasít": 4202,
      "tájol": 4203,
      "tanácsol": 4204,
      "fájlal": 4205,
      "sugároz": 4206,
      "ígérget": 4207,
      "lopkod": 4208,
      "gyomlál": 4209,
      "mélyeszt": 4210,
      "érdekel": 4211,
      "statuál": 4212,
      "továbbít": 4213,
      "továbbfejleszt": 4214,
      "hurcol": 4215,
      "rászed": 4216,
      "köpköd": 4217,
      "agyonvág": 4218,
      "újjáalakít": 4219,
      "aggaszt": 4220,
      "fáraszt": 4221,
      "jellemez": 4222,
      "kendőz": 4223,
      "hordoz": 4224,
      "bátortalanít": 4225,
      "nyilvánít": 4226,
      "mérgez": 4227,
      "mérgesít": 4228,
      "izzaszt": 4229,
      "sírdogál": 4230,
      "pusztít": 4231,
      "vázol": 4232,
      "gázol": 4233,
      "bolondít": 4234,
      "dadog": 4235,
      "megismertet": 4236,
      "bomlaszt": 4237,
      "vénít": 4238,
      "simogat": 4239,
      "következtet": 4240,
      "vétóz": 4241,
      "szétválaszt": 4242,
      "csiripel": 4243,
      "produkál": 4244,
      "vastagít": 4245,
      "áldoz": 4246,
      "stoppol": 4247,
      "zacskóz": 4248,
      "félrevezet": 4249,
      "tágít": 4250,
      "fújdogál": 4251,
      "happol": 4252,
      "meggyőz": 4253,
      "benyújt": 4254,
      "szemléltet": 4255,
      "hátraköt": 4256,
      "lassít": 4257,
      "viszonyít": 4258,
      "csúfít": 4259,
      "ünnepel": 4260,
      "hüpp": 4261,
      "elvetél": 4262,
      "gurít": 4263,
      "ösztönöz": 4264,
      "helyesel": 4265,
      "érzékeltet": 4266,
      "legyőz": 4267,
      "ringat": 4268,
      "kényszerít": 4269,
      "gyullaszt": 4270,
      "zokog": 4271,
      "nevetgél": 4272,
      "raktároz": 4273,
      "bombard": 4274,
      "döfköd": 4275,
      "stimmel": 4276,
      "drágáll": 4277,
      "terelget": 4278,
      "összezavar": 4279,
      "összezsugorít": 4280,
      "nulláz": 4281,
      "zsugorít": 4282,
      "megjelenít": 4283,
      "gúnyol": 4284,
      "ilitarizál": 4285,
      "szégyenít": 4286,
      "köhögtet": 4287,
      "jövedelmez": 4288,
      "sejtet": 4289,
      "végrehajt": 4290,
      "időzít": 4291,
      "megkönnyít": 4292,
      "felkelt": 4293,
      "hibáztat": 4294,
      "tépked": 4295,
      "szipog": 4296,
      "taníttat": 4297,
      "tapsol": 4298,
      "tátog": 4299,
      "megértet": 4300,
      "kilélegez": 4301,
      "torzít": 4302,
      "megfellebbez": 4303,
      "felháborít": 4304,
      "hagyományoz": 4305,
      "vicsorít": 4306,
      "homályosít": 4307,
      "működtet": 4308,
      "otoshop": 4309,
      "bágyaszt": 4310,
      "fullaszt": 4311,
      "zülleszt": 4312,
      "fonnyaszt": 4313,
      "duzzaszt": 4314,
      "lélegzet": 4315,
      "photoshop": 4316,
      "pasztőröz": 4317,
      "rühell": 4318,
      "sliccel": 4319,
      "snóderol": 4320,
      "zihál": 4321,
      "vacsorázik": 4322,
      "szabotál": 4323,
      "engedélyez": 4324,
      "mímel": 4325,
      "végiggondol": 4326,
      "stírol": 4327,
      "adagol": 4328,
      "bonyolít": 4329,
      "zagyvál": 4330,
      "prezentál": 4331,
      "hasznosít": 4332,
      "szabványosít": 4333,
      "vizionál": 4334,
      "egybeköt": 4335,
      "összegyűjt": 4336,
      "börtönöz": 4337,
      "válaszol": 4338,
      "záradékol": 4339,
      "tángál": 4340,
      "akkreditál": 4341,
      "árverez": 4342,
      "urbanizál": 4343,
      "szemerkél": 4344,
      "parkíroz": 4345,
      "vakációzik": 4346,
      "palástol": 4347,
      "privatizál": 4348,
      "mángorol": 4349,
      "ledönt": 4350,
      "postáz": 4351,
      "bömböl": 4352,
      "evakuál": 4353,
      "hebeg": 4354,
      "kizsákmányol": 4355,
      "vartyog": 4356,
      "éhezik": 4357,
      "elsötétít": 4358,
      "elcsüggeszt": 4359,
      "megkárosít": 4360,
      "megtestesít": 4361,
      "hüppög": 4362,
      "bombardíroz": 4363,
      "photoshoppol": 4364,
      "éves": 4365,
      "elkerül": 4366,
      "ari": 4367,
      "usi": 4368,
      "feled": 4369,
      "tré": 4370,
      "halott": 4371,
      "forint": 4372,
      "almi": 4373,
      "ápoly": 4374,
      "sérül": 4375,
      "süllyed": 4376,
      "ötödik": 4377,
      "kotor": 4378,
      "bür": 4379,
      "lobog": 4380,
      "skó": 4381,
      "eltér": 4382,
      "fejű": 4383,
      "járul": 4384,
      "szürke": 4385,
      "ijed": 4386,
      "lett": 4387,
      "o.": 4388,
      "kivándor": 4389,
      "ajk": 4390,
      "ugrál": 4391,
      "szakértő": 4392,
      "ájú": 4393,
      "tisztviselő": 4394,
      "falu": 4395,
      "ozási": 4396,
      "nyilatkozik": 4397,
      "távolodik": 4398,
      "nyűg": 4399,
      "dolgozó": 4400,
      "reflex": 4401,
      "Gu": 4402,
      "hász": 4403,
      "ján": 4404,
      "sz.": 4405,
      "idesz": 4406,
      "visszat": 4407,
      "Fer": 4408,
      "Il": 4409,
      "Le": 4410,
      "Mad": 4411,
      "Or": 4412,
      "aó": 4413,
      "ck": 4414,
      "tin": 4415,
      "vetek": 4416,
      "zer": 4417,
      "ata": 4418,
      "egzik": 4419,
      "ólia": 4420,
      "ükk": 4421,
      "lang": 4422,
      "rendező": 4423,
      "barlang": 4424,
      "ocsi": 4425,
      "kisasszony": 4426,
      "munkál": 4427,
      "cselekedik": 4428,
      "cselekszik": 4429,
      "esküv": 4430,
      "pihen": 4431,
      "gön": 4432,
      "vös": 4433,
      "csik": 4434,
      "cir": 4435,
      "halvány": 4436,
      "előfordul": 4437,
      "különböz": 4438,
      "göndör": 4439,
      "hig": 4440,
      "tmű": 4441,
      "ői": 4442,
      "megkülönböz": 4443,
      "levegő": 4444,
      "összet": 4445,
      "tev": 4446,
      "tiltak": 4447,
      "együttmű": 4448,
      "dicsér": 4449,
      "afr": 4450,
      "bunk": 4451,
      "hir": 4452,
      "jeges": 4453,
      "lit": 4454,
      "mén": 4455,
      "teg": 4456,
      "elismer": 4457,
      "eteg": 4458,
      "orom": 4459,
      "nyíl": 4460,
      "vád": 4461,
      "átlát": 4462,
      "átkoz": 4463,
      "néző": 4464,
      "irtó": 4465,
      "uty": 4466,
      "ösvény": 4467,
      "kore": 4468,
      "nevelő": 4469,
      "törzs": 4470,
      "teás": 4471,
      "teátr": 4472,
      "kosz": 4473,
      "peri": 4474,
      "peres": 4475,
      "vízilab": 4476,
      "füst": 4477,
      "mosto": 4478,
      "hódít": 4479,
      "szalonk": 4480,
      "dzsa": 4481,
      "antik": 4482,
      "játékos": 4483,
      "hadi": 4484,
      "távolság": 4485,
      "kölcsönző": 4486,
      "komplex": 4487,
      "érintő": 4488,
      "folyamat": 4489,
      "dinam": 4490,
      "harcos": 4491,
      "konzervat": 4492,
      "kvant": 4493,
      "differ": 4494,
      "uralkodó": 4495,
      "absztrak": 4496,
      "mostoha": 4497,
      "bin": 4498,
      "bács": 4499,
      "dus": 4500,
      "diszt": 4501,
      "domb": 4502,
      "fat": 4503,
      "hiz": 4504,
      "keb": 4505,
      "mir": 4506,
      "meny": 4507,
      "nett": 4508,
      "poly": 4509,
      "rú": 4510,
      "vam": 4511,
      "vent": 4512,
      "zo": 4513,
      "zenek": 4514,
      "óc": 4515,
      "szomb": 4516,
      "elnyom": 4517,
      "aktu": 4518,
      "anim": 4519,
      "anista": 4520,
      "erátor": 4521,
      "cset": 4522,
      "csörgő": 4523,
      "ásvány": 4524,
      "élium": 4525,
      "ezer": 4526,
      "esszor": 4527,
      "adi": 4528,
      "adós": 4529,
      "megsemmis": 4530,
      "megszentségtelenít": 4531,
      "raszt": 4532,
      "vám": 4533,
      "teknő": 4534,
      "befoly": 4535,
      "bevétel": 4536,
      "valy": 4537,
      "cit": 4538,
      "átán": 4539,
      "átfog": 4540,
      "átkelő": 4541,
      "kijelent": 4542,
      "kifogás": 4543,
      "idó": 4544,
      "idény": 4545,
      "asztr": 4546,
      "ámi": 4547,
      "benn": 4548,
      "teri": 4549,
      "halandó": 4550,
      "halogén": 4551,
      "forgó": 4552,
      "neon": 4553,
      "neur": 4554,
      "hajtás": 4555,
      "uszi": 4556,
      "epil": 4557,
      "őrend": 4558,
      "élyi": 4559,
      "szemét": 4560,
      "viselet": 4561,
      "koszor": 4562,
      "műves": 4563,
      "kardi": 4564,
      "tökélet": 4565,
      "hangzó": 4566,
      "kölni": 4567,
      "para": 4568,
      "kedvelő": 4569,
      "tüz": 4570,
      "rakodó": 4571,
      "ellenőr": 4572,
      "visszavon": 4573,
      "mozgó": 4574,
      "aváll": 4575,
      "patri": 4576,
      "díjas": 4577,
      "doboz": 4578,
      "metsző": 4579,
      "könyves": 4580,
      "származ": 4581,
      "bron": 4582,
      "centiméter": 4583,
      "venció": 4584,
      "gyűlés": 4585,
      "farmer": 4586,
      "éjjel": 4587,
      "hetetlenség": 4588,
      "húzó": 4589,
      "töltő": 4590,
      "erőszak": 4591,
      "hím": 4592,
      "ultim": 4593,
      "kézi": 4594,
      "hadar": 4595,
      "tömb": 4596,
      "demonstr": 4597,
      "turbán": 4598,
      "gyilkosság": 4599,
      "pillantás": 4600,
      "hűtő": 4601,
      "internet": 4602,
      "tengeri": 4603,
      "minisztérium": 4604,
      "drog": 4605,
      "félreért": 4606,
      "sáv": 4607,
      "szülött": 4608,
      "uttony": 4609,
      "zaklat": 4610,
      "születés": 4611,
      "budd": 4612,
      "típus": 4613,
      "grafikus": 4614,
      "stabil": 4615,
      "elhanyag": 4616,
      "korlátoz": 4617,
      "billentyűzet": 4618,
      "gyűjtő": 4619,
      "bíróság": 4620,
      "seprő": 4621,
      "hizlal": 4622,
      "befolyás": 4623,
      "skal": 4624,
      "teny": 4625,
      "szelek": 4626,
      "ike": 4627,
      "értékel": 4628,
      "megválaszt": 4629,
      "vántart": 4630,
      "rehab": 4631,
      "kitart": 4632,
      "kiejt": 4633,
      "kibocsát": 4634,
      "impro": 4635,
      "artóz": 4636,
      "vih": 4637,
      "szór": 4638,
      "liber": 4639,
      "száműz": 4640,
      "letartóz": 4641,
      "parkol": 4642,
      "kompl": 4643,
      "füs": 4644,
      "kérdez": 4645,
      "tisztel": 4646,
      "fermentál": 4647,
      "alapít": 4648,
      "nyilvántart": 4649,
      "sajnál": 4650,
      "komplik": 4651,
      "teljesít": 4652,
      "figur": 4653,
      "integrál": 4654,
      "regisztrál": 4655,
      "juh": 4656,
      "rúd": 4657,
      "tőr": 4658,
      "ikális": 4659,
      "eszű": 4660,
      "kórok": 4661,
      "napos": 4662,
      "boy": 4663,
      "igazgató": 4664,
      "viasz": 4665,
      "ént": 4666,
      "másod": 4667,
      "centrikus": 4668,
      "licenc": 4669,
      "hán": 4670,
      "una": 4671,
      "ela": 4672,
      "ada": 4673,
      "háza": 4674,
      "térítő": 4675,
      "burg": 4676,
      "jan": 4677,
      "oj": 4678,
      "csőr": 4679,
      "prob": 4680,
      "farok": 4681,
      "ája": 4682,
      "eger": 4683,
      "kacs": 4684,
      "barátság": 4685,
      "környék": 4686,
      "percen": 4687,
      "rug": 4688,
      "hulla": 4689,
      "Pat": 4690,
      "dir": 4691,
      "he": 4692,
      "him": 4693,
      "jord": 4694,
      "pim": 4695,
      "emes": 4696,
      "szter": 4697,
      "ras": 4698,
      "iros": 4699,
      "prém": 4700,
      "eléged": 4701,
      "bohém": 4702,
      "szövetség": 4703,
      "fant": 4704,
      "pez": 4705,
      "rossz": 4706,
      "tot": 4707,
      "őd": 4708,
      "cses": 4709,
      "kezes": 4710,
      "komor": 4711,
      "cserkész": 4712,
      "véletlen": 4713,
      "monitor": 4714,
      "segéd": 4715,
      "usztus": 4716,
      "CD": 4717,
      "gr": 4718,
      "hok": 4719,
      "jól": 4720,
      "trag": 4721,
      "zöng": 4722,
      "szesz": 4723,
      "aty": 4724,
      "erkölcs": 4725,
      "arisz": 4726,
      "szerb": 4727,
      "letes": 4728,
      "szic": 4729,
      "spe": 4730,
      "horvát": 4731,
      "ániás": 4732,
      "alkotmány": 4733,
      "csillapító": 4734,
      "arisztok": 4735,
      "hed": 4736,
      "lágy": 4737,
      "titok": 4738,
      "udi": 4739,
      "íli": 4740,
      "altató": 4741,
      "antró": 4742,
      "nyél": 4743,
      "gyel": 4744,
      "ezüs": 4745,
      "kétség": 4746,
      "kiszámít": 4747,
      "felelő": 4748,
      "felező": 4749,
      "nélkül": 4750,
      "lefordít": 4751,
      "landi": 4752,
      "hajlam": 4753,
      "fiatal": 4754,
      "expres": 4755,
      "extra": 4756,
      "kozm": 4757,
      "derű": 4758,
      "jogos": 4759,
      "cseh": 4760,
      "orvosol": 4761,
      "sérült": 4762,
      "elfogad": 4763,
      "semleges": 4764,
      "lábas": 4765,
      "fájd": 4766,
      "kesztyű": 4767,
      "illeték": 4768,
      "gyakorlat": 4769,
      "röp": 4770,
      "szlovák": 4771,
      "antróp": 4772,
      "felelős": 4773,
      "döng": 4774,
      "gall": 4775,
      "jug": 4776,
      "mil": 4777,
      "mászó": 4778,
      "nes": 4779,
      "oista": 4780,
      "pörög": 4781,
      "zus": 4782,
      "ében": 4783,
      "ökös": 4784,
      "úri": 4785,
      "elképzel": 4786,
      "alog": 4787,
      "anéz": 4788,
      "olim": 4789,
      "megszámlál": 4790,
      "kövér": 4791,
      "hozó": 4792,
      "kimen": 4793,
      "kiadó": 4794,
      "ánus": 4795,
      "immun": 4796,
      "egyens": 4797,
      "teli": 4798,
      "hatvan": 4799,
      "veszik": 4800,
      "örökös": 4801,
      "válik": 4802,
      "vertál": 4803,
      "viet": 4804,
      "templ": 4805,
      "vonul": 4806,
      "téved": 4807,
      "számító": 4808,
      "paraszt": 4809,
      "marx": 4810,
      "kedvel": 4811,
      "oszlik": 4812,
      "indulat": 4813,
      "Szent": 4814,
      "szívó": 4815,
      "csapong": 4816,
      "ázsiai": 4817,
      "nyertes": 4818,
      "lappang": 4819,
      "kamar": 4820,
      "hamis": 4821,
      "rajzik": 4822,
      "pirul": 4823,
      "sarj": 4824,
      "repül": 4825,
      "romlik": 4826,
      "tűnik": 4827,
      "szomszéd": 4828,
      "akadém": 4829,
      "bukkan": 4830,
      "szűnik": 4831,
      "méltány": 4832,
      "rémül": 4833,
      "mikro": 4834,
      "evang": 4835,
      "levelez": 4836,
      "analitikus": 4837,
      "zajong": 4838,
      "magaslik": 4839,
      "automata": 4840,
      "szarvú": 4841,
      "ágazik": 4842,
      "közlekedés": 4843,
      "egzisztenci": 4844,
      "zsibbad": 4845,
      "egyensúly": 4846,
      "érez": 4847,
      "meghatároz": 4848,
      "letölt": 4849,
      "alkotó": 4850,
      "skót": 4851,
      "támogat": 4852,
      "titkoló": 4853,
      "kovács": 4854,
      "penész": 4855,
      "kertész": 4856,
      "did": 4857,
      "fing": 4858,
      "pöf": 4859,
      "sas": 4860,
      "tend": 4861,
      "tty": 4862,
      "tombol": 4863,
      "ucer": 4864,
      "öb": 4865,
      "eton": 4866,
      "ikol": 4867,
      "almoz": 4868,
      "csobog": 4869,
      "nyar": 4870,
      "ozs": 4871,
      "emig": 4872,
      "kénti": 4873,
      "reszket": 4874,
      "eszól": 4875,
      "koch": 4876,
      "tévely": 4877,
      "beleszól": 4878,
      "barkoch": 4879,
      "viteli": 4880,
      "fütty": 4881,
      "émely": 4882,
      "menek": 4883,
      "védelmi": 4884,
      "vélemény": 4885,
      "szólam": 4886,
      "kilát": 4887,
      "burger": 4888,
      "dezer": 4889,
      "borzad": 4890,
      "együttér": 4891,
      "cimbal": 4892,
      "polgári": 4893,
      "riporter": 4894,
      "szundikál": 4895,
      "megkönnyebb": 4896,
      "megújh": 4897,
      "hozzászól": 4898,
      "nyaral": 4899,
      "cizik": 4900,
      "malom": 4901,
      "ubb": 4902,
      "egér": 4903,
      "arag": 4904,
      "eződik": 4905,
      "bukik": 4906,
      "aragu": 4907,
      "uor": 4908,
      "gyanak": 4909,
      "képviselő": 4910,
      "fluor": 4911,
      "visszatér": 4912,
      "gázik": 4913,
      "ich": 4914,
      "yár": 4915,
      "álkodik": 4916,
      "nyí": 4917,
      "könt": 4918,
      "hozomány": 4919,
      "ándok": 4920,
      "ity": 4921,
      "abor": 4922,
      "elődik": 4923,
      "kózik": 4924,
      "vissz": 4925,
      "konspir": 4926,
      "kapit": 4927,
      "betyár": 4928,
      "tüs": 4929,
      "veszte": 4930,
      "húzódik": 4931,
      "emlékezik": 4932,
      "szökik": 4933,
      "fúvódik": 4934,
      "labor": 4935,
      "fújódik": 4936,
      "zarándok": 4937,
      "kezdődik": 4938,
      "búcsúzik": 4939,
      "dús": 4940,
      "minál": 4941,
      "ennivaló": 4942,
      "anizál": 4943,
      "civak": 4944,
      "apos": 4945,
      "zsörtö": 4946,
      "agál": 4947,
      "ámul": 4948,
      "kever": 4949,
      "fölül": 4950,
      "fac": 4951,
      "vaku": 4952,
      "hóc": 4953,
      "falaz": 4954,
      "játszó": 4955,
      "beker": 4956,
      "viszály": 4957,
      "bohóc": 4958,
      "cigar": 4959,
      "fárad": 4960,
      "sáfár": 4961,
      "büszk": 4962,
      "tájékoz": 4963,
      "kettétör": 4964,
      "oxidál": 4965,
      "Ma": 4966,
      "Mak": 4967,
      "ába": 4968,
      "angyal": 4969,
      "egzés": 4970,
      "edény": 4971,
      "adika": 4972,
      "nász": 4973,
      "hozás": 4974,
      "hajnal": 4975,
      "ellő": 4976,
      "osztás": 4977,
      "oszlá": 4978,
      "vezetés": 4979,
      "balzs": 4980,
      "részvény": 4981,
      "tapasz": 4982,
      "kamat": 4983,
      "burok": 4984,
      "óriás": 4985,
      "jegyzék": 4986,
      "terjesztés": 4987,
      "pajzs": 4988,
      "alátét": 4989,
      "pótlás": 4990,
      "üzenet": 4991,
      "Ad": 4992,
      "Be": 4993,
      "Bor": 4994,
      "Ist": 4995,
      "Jó": 4996,
      "Nor": 4997,
      "Pol": 4998,
      "Ter": 4999,
      "Zsu": 5000,
      "aci": 5001,
      "bát": 5002,
      "bög": 5003,
      "cas": 5004,
      "dat": 5005,
      "deg": 5006,
      "dró": 5007,
      "fóka": 5008,
      "gég": 5009,
      "gam": 5010,
      "gály": 5011,
      "gip": 5012,
      "gomba": 5013,
      "hinta": 5014,
      "hólyag": 5015,
      "kus": 5016,
      "kán": 5017,
      "kum": 5018,
      "kend": 5019,
      "kesz": 5020,
      "kür": 5021,
      "lig": 5022,
      "lemény": 5023,
      "mill": 5024,
      "méz": 5025,
      "mulat": 5026,
      "oár": 5027,
      "pól": 5028,
      "pom": 5029,
      "pció": 5030,
      "piszt": 5031,
      "pand": 5032,
      "pád": 5033,
      "plet": 5034,
      "póz": 5035,
      "pánc": 5036,
      "piló": 5037,
      "rus": 5038,
      "rép": 5039,
      "rátor": 5040,
      "roll": 5041,
      "sól": 5042,
      "sám": 5043,
      "sün": 5044,
      "sólyom": 5045,
      "sapka": 5046,
      "tság": 5047,
      "tusz": 5048,
      "ub": 5049,
      "uha": 5050,
      "ucc": 5051,
      "vor": 5052,
      "vizmus": 5053,
      "zé": 5054,
      "zászló": 5055,
      "éna": 5056,
      "ösz": 5057,
      "szez": 5058,
      "szől": 5059,
      "szis": 5060,
      "szát": 5061,
      "szaj": 5062,
      "szex": 5063,
      "szünet": 5064,
      "elrett": 5065,
      "eke": 5066,
      "eter": 5067,
      "álca": 5068,
      "áltás": 5069,
      "alag": 5070,
      "alac": 5071,
      "anat": 5072,
      "okrácia": 5073,
      "atika": 5074,
      "atűr": 5075,
      "onc": 5076,
      "onómia": 5077,
      "orsó": 5078,
      "csög": 5079,
      "csoda": 5080,
      "csikó": 5081,
      "nyó": 5082,
      "nyeg": 5083,
      "aizmus": 5084,
      "oma": 5085,
      "ompó": 5086,
      "essz": 5087,
      "eskó": 5088,
      "este": 5089,
      "szta": 5090,
      "sztrá": 5091,
      "edz": 5092,
      "adár": 5093,
      "adop": 5094,
      "advány": 5095,
      "megkoronáz": 5096,
      "ukk": 5097,
      "éklet": 5098,
      "izátor": 5099,
      "ogámia": 5100,
      "iság": 5101,
      "babér": 5102,
      "basa": 5103,
      "kötél": 5104,
      "kötés": 5105,
      "inika": 5106,
      "uly": 5107,
      "nát": 5108,
      "cink": 5109,
      "áter": 5110,
      "app": 5111,
      "banda": 5112,
      "nézés": 5113,
      "kivet": 5114,
      "kielég": 5115,
      "ázat": 5116,
      "ánsz": 5117,
      "amin": 5118,
      "itmus": 5119,
      "immu": 5120,
      "imadár": 5121,
      "tövis": 5122,
      "iac": 5123,
      "zsem": 5124,
      "zsám": 5125,
      "zsold": 5126,
      "egység": 5127,
      "szerszám": 5128,
      "szerelés": 5129,
      "öltés": 5130,
      "umpli": 5131,
      "ámaszt": 5132,
      "lebeny": 5133,
      "abát": 5134,
      "lencse": 5135,
      "észmérnök": 5136,
      "enda": 5137,
      "vevő": 5138,
      "vecske": 5139,
      "prím": 5140,
      "épület": 5141,
      "tran": 5142,
      "trén": 5143,
      "étkező": 5144,
      "aszék": 5145,
      "korona": 5146,
      "borsó": 5147,
      "vezek": 5148,
      "hajlat": 5149,
      "hajszál": 5150,
      "ipa": 5151,
      "ipszilon": 5152,
      "azma": 5153,
      "varjú": 5154,
      "ebra": 5155,
      "viadal": 5156,
      "őrgróf": 5157,
      "ötő": 5158,
      "lóverseny": 5159,
      "lakk": 5160,
      "lakodalom": 5161,
      "fejlődés": 5162,
      "enger": 5163,
      "szemérem": 5164,
      "szempilla": 5165,
      "anyó": 5166,
      "teher": 5167,
      "harap": 5168,
      "róna": 5169,
      "kondi": 5170,
      "szója": 5171,
      "koli": 5172,
      "kecske": 5173,
      "ingó": 5174,
      "torta": 5175,
      "torna": 5176,
      "tév": 5177,
      "számnév": 5178,
      "legény": 5179,
      "szivitás": 5180,
      "szibarack": 5181,
      "parancs": 5182,
      "marha": 5183,
      "úzió": 5184,
      "polig": 5185,
      "bert": 5186,
      "betét": 5187,
      "ózat": 5188,
      "ózás": 5189,
      "ügynök": 5190,
      "szível": 5191,
      "színész": 5192,
      "barom": 5193,
      "vérsejt": 5194,
      "áklya": 5195,
      "fran": 5196,
      "freskó": 5197,
      "tolvaj": 5198,
      "kalóz": 5199,
      "világító": 5200,
      "világítás": 5201,
      "párdu": 5202,
      "földrajz": 5203,
      "ofon": 5204,
      "patkó": 5205,
      "vezeték": 5206,
      "folytat": 5207,
      "porcel": 5208,
      "balett": 5209,
      "változtatás": 5210,
      "csapat": 5211,
      "csapás": 5212,
      "krém": 5213,
      "kréta": 5214,
      "krumpli": 5215,
      "papa": 5216,
      "paprika": 5217,
      "papucs": 5218,
      "könyök": 5219,
      "magán": 5220,
      "társadalom": 5221,
      "here": 5222,
      "színház": 5223,
      "színlel": 5224,
      "vessző": 5225,
      "hatatlanság": 5226,
      "utas": 5227,
      "brig": 5228,
      "brán": 5229,
      "geteg": 5230,
      "fizika": 5231,
      "fekély": 5232,
      "tória": 5233,
      "szegfű": 5234,
      "tűzoltó": 5235,
      "hálózat": 5236,
      "táska": 5237,
      "teremtés": 5238,
      "légáram": 5239,
      "sorozat": 5240,
      "sorompó": 5241,
      "sárkány": 5242,
      "pók": 5243,
      "kamasz": 5244,
      "televízió": 5245,
      "orvostan": 5246,
      "doktor": 5247,
      "ödör": 5248,
      "bekö": 5249,
      "koponya": 5250,
      "blog": 5251,
      "pénztár": 5252,
      "csata": 5253,
      "terjedés": 5254,
      "féreg": 5255,
      "lepény": 5256,
      "lepke": 5257,
      "darab": 5258,
      "roham": 5259,
      "fehérje": 5260,
      "gondolat": 5261,
      "testvér": 5262,
      "archia": 5263,
      "makrof": 5264,
      "cionalizmus": 5265,
      "fotós": 5266,
      "festmény": 5267,
      "meder": 5268,
      "medence": 5269,
      "gazdász": 5270,
      "csík": 5271,
      "tengely": 5272,
      "mandarin": 5273,
      "szolgálat": 5274,
      "kupa": 5275,
      "szőnyeg": 5276,
      "nyakszirt": 5277,
      "sajtó": 5278,
      "pecs": 5279,
      "keselyű": 5280,
      "kontra": 5281,
      "zsaroló": 5282,
      "lépés": 5283,
      "emlékeztet": 5284,
      "kakukk": 5285,
      "pályaudvar": 5286,
      "sertés": 5287,
      "négyzet": 5288,
      "mise": 5289,
      "fordítás": 5290,
      "királynő": 5291,
      "állapot": 5292,
      "forduló": 5293,
      "tompor": 5294,
      "táncos": 5295,
      "alkotás": 5296,
      "fájás": 5297,
      "vizsgálat": 5298,
      "étlenség": 5299,
      "enzió": 5300,
      "köpeny": 5301,
      "biztosítás": 5302,
      "rendelkezik": 5303,
      "piac": 5304,
      "basszus": 5305,
      "incér": 5306,
      "miniszter": 5307,
      "gyűlölet": 5308,
      "együttes": 5309,
      "szennyezés": 5310,
      "szegénység": 5311,
      "ápolás": 5312,
      "kalapács": 5313,
      "bomba": 5314,
      "igazgatás": 5315,
      "mogyoró": 5316,
      "szinusz": 5317,
      "hidrogén": 5318,
      "labda": 5319,
      "puska": 5320,
      "cimpa": 5321,
      "zongora": 5322,
      "hüvely": 5323,
      "kerékpár": 5324,
      "huzat": 5325,
      "pedagó": 5326,
      "vitorláz": 5327,
      "gyulladás": 5328,
      "membrán": 5329,
      "pingvin": 5330,
      "lovaglás": 5331,
      "zokni": 5332,
      "kedvező": 5333,
      "politika": 5334,
      "tornász": 5335,
      "bánya": 5336,
      "szamár": 5337,
      "reszelék": 5338,
      "forgató": 5339,
      "történet": 5340,
      "vállalkozó": 5341,
      "nejlon": 5342,
      "guba": 5343,
      "gyűjtemény": 5344,
      "bajnokság": 5345,
      "repülőgép": 5346,
      "termelés": 5347,
      "kurzus": 5348,
      "alátámaszt": 5349,
      "kabát": 5350,
      "lövés": 5351,
      "gesztenye": 5352,
      "igris": 5353,
      "oterápia": 5354,
      "zsoltár": 5355,
      "borotvál": 5356,
      "technika": 5357,
      "miniatűr": 5358,
      "mérséklet": 5359,
      "dédnagy": 5360,
      "gólya": 5361,
      "húgy": 5362,
      "csokor": 5363,
      "naturalizmus": 5364,
      "főzde": 5365,
      "Kriszt": 5366,
      "kölyök": 5367,
      "luxus": 5368,
      "szúnyog": 5369,
      "dupláz": 5370,
      "pinty": 5371,
      "tégla": 5372,
      "atartó": 5373,
      "tábla": 5374,
      "eszkalál": 5375,
      "harisnya": 5376,
      "kvantum": 5377,
      "balzsam": 5378,
      "kürt": 5379,
      "páncél": 5380,
      "pilóta": 5381,
      "öszvér": 5382,
      "szőlő": 5383,
      "elrettent": 5384,
      "sztrájk": 5385,
      "adoptál": 5386,
      "zsámoly": 5387,
      "párduc": 5388,
      "porcelán": 5389,
      "auz": 5390,
      "blat": 5391,
      "böcs": 5392,
      "deszt": 5393,
      "kalk": 5394,
      "locs": 5395,
      "mont": 5396,
      "mázs": 5397,
      "mulaszt": 5398,
      "súg": 5399,
      "xerox": 5400,
      "zúz": 5401,
      "áh": 5402,
      "íp": 5403,
      "ütem": 5404,
      "szid": 5405,
      "szitál": 5406,
      "ikád": 5407,
      "altat": 5408,
      "cseg": 5409,
      "csép": 5410,
      "csűr": 5411,
      "nyög": 5412,
      "emul": 5413,
      "gyö": 5414,
      "gyárt": 5415,
      "ezd": 5416,
      "megvaló": 5417,
      "megnevez": 5418,
      "megpróbál": 5419,
      "megszervez": 5420,
      "inform": 5421,
      "behúz": 5422,
      "ültet": 5423,
      "vallat": 5424,
      "cint": 5425,
      "recseg": 5426,
      "nézet": 5427,
      "kihallgat": 5428,
      "feltalál": 5429,
      "feldolg": 5430,
      "impr": 5431,
      "importál": 5432,
      "tönk": 5433,
      "zsind": 5434,
      "szervál": 5435,
      "lefoglal": 5436,
      "terít": 5437,
      "irt": 5438,
      "észre": 5439,
      "endel": 5440,
      "kaszab": 5441,
      "pré": 5442,
      "prop": 5443,
      "tákol": 5444,
      "landol": 5445,
      "válogat": 5446,
      "tetovál": 5447,
      "aszály": 5448,
      "forraszt": 5449,
      "korhol": 5450,
      "korszerűsít": 5451,
      "kós": 5452,
      "elmond": 5453,
      "lakat": 5454,
      "karik": 5455,
      "konstr": 5456,
      "konszolid": 5457,
      "szótag": 5458,
      "helyre": 5459,
      "köröz": 5460,
      "nemz": 5461,
      "szkenn": 5462,
      "markol": 5463,
      "kommand": 5464,
      "komprom": 5465,
      "térít": 5466,
      "betör": 5467,
      "ügyetlenkedik": 5468,
      "barikád": 5469,
      "front": 5470,
      "gór": 5471,
      "exhum": 5472,
      "exportál": 5473,
      "tolm": 5474,
      "kalauz": 5475,
      "főzet": 5476,
      "főnök": 5477,
      "nyomtat": 5478,
      "deval": 5479,
      "defin": 5480,
      "bujt": 5481,
      "rágcs": 5482,
      "szállít": 5483,
      "gyarmat": 5484,
      "szekul": 5485,
      "üldöz": 5486,
      "pirít": 5487,
      "pirosít": 5488,
      "szigony": 5489,
      "bojk": 5490,
      "demor": 5491,
      "szintet": 5492,
      "rezer": 5493,
      "manip": 5494,
      "kompenz": 5495,
      "habar": 5496,
      "retesz": 5497,
      "vátesz": 5498,
      "díszít": 5499,
      "deleg": 5500,
      "domeszt": 5501,
      "köszönt": 5502,
      "forgalmaz": 5503,
      "csempész": 5504,
      "fertőtlen": 5505,
      "fókusz": 5506,
      "konzervál": 5507,
      "rögz": 5508,
      "rögtö": 5509,
      "kötelez": 5510,
      "dézs": 5511,
      "tűrő": 5512,
      "lejn": 5513,
      "formatál": 5514,
      "jóváhagy": 5515,
      "gyanúsít": 5516,
      "boncol": 5517,
      "sampon": 5518,
      "negl": 5519,
      "kattint": 5520,
      "fetis": 5521,
      "mészár": 5522,
      "amputál": 5523,
      "kirakat": 5524,
      "renovál": 5525,
      "smink": 5526,
      "távirány": 5527,
      "faggat": 5528,
      "sterilizál": 5529,
      "hirdet": 5530,
      "differenciál": 5531,
      "ventil": 5532,
      "tenyészt": 5533,
      "kompliment": 5534,
      "megvalósít": 5535,
      "zsindely": 5536,
      "exhumál": 5537,
      "Seb": 5538,
      "fás": 5539,
      "rog": 5540,
      "által": 5541,
      "ásos": 5542,
      "felület": 5543,
      "rózs": 5544,
      "alkalmas": 5545,
      "tiszta": 5546,
      "dec": 5547,
      "matikus": 5548,
      "üng": 5549,
      "korcsolyázik": 5550,
      "Nagy": 5551,
      "ódi": 5552,
      "esi": 5553,
      "ölő": 5554,
      "aszín": 5555,
      "bbi": 5556,
      "kézik": 5557,
      "belél": 5558,
      "férfi": 5559,
      "beg": 5560,
      "eleny": 5561,
      "hatol": 5562,
      "divat": 5563,
      "borong": 5564,
      "betelj": 5565,
      "virul": 5566,
      "gói": 5567,
      "fakul": 5568,
      "beteljesül": 5569,
      "höm": 5570,
      "reci": 5571,
      "egyesül": 5572,
      "köztisztviselő": 5573,
      "borul": 5574,
      "kóbor": 5575,
      "tőke": 5576,
      "tágul": 5577,
      "rang": 5578,
      "karom": 5579,
      "széled": 5580,
      "hasad": 5581,
      "lábad": 5582,
      "lyukad": 5583,
      "juss": 5584,
      "Ber": 5585,
      "Gab": 5586,
      "eológia": 5587,
      "oszk": 5588,
      "plan": 5589,
      "sáp": 5590,
      "t.": 5591,
      "vol": 5592,
      "ácia": 5593,
      "ínium": 5594,
      "óma": 5595,
      "ónia": 5596,
      "ália": 5597,
      "olvad": 5598,
      "ester": 5599,
      "raz": 5600,
      "tabu": 5601,
      "ida": 5602,
      "ama": 5603,
      "zsé": 5604,
      "tamentum": 5605,
      "usza": 5606,
      "angl": 5607,
      "őrül": 5608,
      "hars": 5609,
      "szivat": 5610,
      "vitéz": 5611,
      "kancsal": 5612,
      "Szé": 5613,
      "hátr": 5614,
      "bili": 5615,
      "béria": 5616,
      "bizonytalan": 5617,
      "guru": 5618,
      "retten": 5619,
      "hercegnő": 5620,
      "Ferenc": 5621,
      "munkáltató": 5622,
      "szivattyú": 5623,
      "SZ": 5624,
      "deb": 5625,
      "ttem": 5626,
      "ajz": 5627,
      "zsém": 5628,
      "lesz": 5629,
      "vasal": 5630,
      "szíves": 5631,
      "remek": 5632,
      "türelm": 5633,
      "söröz": 5634,
      "elhuny": 5635,
      "böj": 5636,
      "zsémbes": 5637,
      "mocs": 5638,
      "íd": 5639,
      "árad": 5640,
      "gyá": 5641,
      "élős": 5642,
      "kifejezés": 5643,
      "aggó": 5644,
      "hatalmas": 5645,
      "állandó": 5646,
      "étvágy": 5647,
      "kontár": 5648,
      "mosoly": 5649,
      "szelíd": 5650,
      "haszon": 5651,
      "ifjú": 5652,
      "kellem": 5653,
      "dekad": 5654,
      "kísérlet": 5655,
      "gonosz": 5656,
      "eredmény": 5657,
      "gúny": 5658,
      "ravasz": 5659,
      "ravaszk": 5660,
      "tevékeny": 5661,
      "audi": 5662,
      "bos": 5663,
      "bűz": 5664,
      "cak": 5665,
      "fri": 5666,
      "gram": 5667,
      "kre": 5668,
      "klep": 5669,
      "lil": 5670,
      "mok": 5671,
      "mai": 5672,
      "mul": 5673,
      "mong": 5674,
      "pek": 5675,
      "pát": 5676,
      "paz": 5677,
      "sós": 5678,
      "zűr": 5679,
      "zettség": 5680,
      "elfojt": 5681,
      "akrob": 5682,
      "altr": 5683,
      "okos": 5684,
      "onéz": 5685,
      "nyeny": 5686,
      "nyák": 5687,
      "árva": 5688,
      "ármány": 5689,
      "gyap": 5690,
      "gyöny": 5691,
      "megfog": 5692,
      "megállít": 5693,
      "meggondol": 5694,
      "néma": 5695,
      "kiegész": 5696,
      "kibír": 5697,
      "idom": 5698,
      "zseni": 5699,
      "abszur": 5700,
      "lend": 5701,
      "vevény": 5702,
      "ördög": 5703,
      "trak": 5704,
      "eszper": 5705,
      "vicc": 5706,
      "törpe": 5707,
      "szemetes": 5708,
      "onda": 5709,
      "konform": 5710,
      "ingat": 5711,
      "éda": 5712,
      "parlam": 5713,
      "komoly": 5714,
      "francia": 5715,
      "párhuz": 5716,
      "tisztelet": 5717,
      "úttörő": 5718,
      "paprik": 5719,
      "magány": 5720,
      "száraz": 5721,
      "nyers": 5722,
      "szoros": 5723,
      "sóvár": 5724,
      "fekvő": 5725,
      "fark": 5726,
      "búvó": 5727,
      "görbe": 5728,
      "pirom": 5729,
      "bajusz": 5730,
      "férj": 5731,
      "szigor": 5732,
      "szomor": 5733,
      "keserű": 5734,
      "zsarát": 5735,
      "genny": 5736,
      "hazug": 5737,
      "tollas": 5738,
      "döntés": 5739,
      "ílus": 5740,
      "kísérő": 5741,
      "béna": 5742,
      "voks": 5743,
      "hivatal": 5744,
      "hajlék": 5745,
      "tulajdonos": 5746,
      "hozzátart": 5747,
      "megkülönböztet": 5748,
      "vízilabd": 5749,
      "nélkülöz": 5750,
      "jogosult": 5751,
      "kleptom": 5752,
      "pazar": 5753,
      "altru": 5754,
      "gyönyör": 5755,
      "paprikás": 5756,
      "coló": 5757,
      "cesszor": 5758,
      "eu": 5759,
      "fis": 5760,
      "fug": 5761,
      "fli": 5762,
      "geli": 5763,
      "hun": 5764,
      "hex": 5765,
      "ivar": 5766,
      "ibil": 5767,
      "ivó": 5768,
      "jet": 5769,
      "kró": 5770,
      "lum": 5771,
      "lítő": 5772,
      "lili": 5773,
      "mani": 5774,
      "multim": 5775,
      "non": 5776,
      "nis": 5777,
      "ow": 5778,
      "pás": 5779,
      "puttony": 5780,
      "sváj": 5781,
      "sátán": 5782,
      "tény": 5783,
      "web": 5784,
      "óció": 5785,
      "őző": 5786,
      "szista": 5787,
      "szánt": 5788,
      "elválaszt": 5789,
      "elbűvöl": 5790,
      "eklek": 5791,
      "ekedés": 5792,
      "ekezet": 5793,
      "akta": 5794,
      "akác": 5795,
      "álarc": 5796,
      "alam": 5797,
      "antr": 5798,
      "atlét": 5799,
      "olíva": 5800,
      "érettség": 5801,
      "ornit": 5802,
      "csész": 5803,
      "ólom": 5804,
      "ásó": 5805,
      "árnap": 5806,
      "ezüst": 5807,
      "sztál": 5808,
      "edző": 5809,
      "osó": 5810,
      "ukáz": 5811,
      "odú": 5812,
      "taj": 5813,
      "tava": 5814,
      "égő": 5815,
      "ini": 5816,
      "inas": 5817,
      "inista": 5818,
      "inverz": 5819,
      "uláns": 5820,
      "befejez": 5821,
      "reform": 5822,
      "kifutó": 5823,
      "felfog": 5824,
      "felbecsül": 5825,
      "idemi": 5826,
      "amzás": 5827,
      "itt": 5828,
      "itatív": 5829,
      "zsidó": 5830,
      "írus": 5831,
      "velúr": 5832,
      "szertartás": 5833,
      "szerkezet": 5834,
      "telmes": 5835,
      "ámok": 5836,
      "levend": 5837,
      "irod": 5838,
      "észség": 5839,
      "ente": 5840,
      "utol": 5841,
      "fogas": 5842,
      "fogamzás": 5843,
      "diop": 5844,
      "község": 5845,
      "közlés": 5846,
      "illó": 5847,
      "hajlít": 5848,
      "epidemi": 5849,
      "ötlet": 5850,
      "temető": 5851,
      "fejes": 5852,
      "fejős": 5853,
      "szemöld": 5854,
      "szemüveg": 5855,
      "anyelv": 5856,
      "kezelő": 5857,
      "kezelés": 5858,
      "koord": 5859,
      "műszak": 5860,
      "karcoló": 5861,
      "képesség": 5862,
      "rádi": 5863,
      "koncentr": 5864,
      "koldus": 5865,
      "kecs": 5866,
      "vasárnap": 5867,
      "szabó": 5868,
      "számoló": 5869,
      "szélhám": 5870,
      "alkat": 5871,
      "osztó": 5872,
      "szkep": 5873,
      "végző": 5874,
      "parkoló": 5875,
      "térium": 5876,
      "vadászat": 5877,
      "járvány": 5878,
      "bari": 5879,
      "plüs": 5880,
      "frány": 5881,
      "virt": 5882,
      "összeegyeztet": 5883,
      "kali": 5884,
      "ellenző": 5885,
      "visszafordít": 5886,
      "indulás": 5887,
      "kérdő": 5888,
      "kozó": 5889,
      "tagság": 5890,
      "mentesít": 5891,
      "katal": 5892,
      "katon": 5893,
      "katol": 5894,
      "cseresz": 5895,
      "papi": 5896,
      "társas": 5897,
      "herpet": 5898,
      "záró": 5899,
      "alapító": 5900,
      "utazó": 5901,
      "utazás": 5902,
      "játsz": 5903,
      "emlős": 5904,
      "szárító": 5905,
      "kodó": 5906,
      "acél": 5907,
      "fizikus": 5908,
      "füles": 5909,
      "reggeli": 5910,
      "munkaváll": 5911,
      "hamed": 5912,
      "fizető": 5913,
      "matem": 5914,
      "fedd": 5915,
      "fedél": 5916,
      "keresztes": 5917,
      "keresztény": 5918,
      "aranyér": 5919,
      "székes": 5920,
      "daráló": 5921,
      "panasz": 5922,
      "kávés": 5923,
      "tanulmány": 5924,
      "testület": 5925,
      "jelölt": 5926,
      "golyós": 5927,
      "romant": 5928,
      "bakteri": 5929,
      "baktérium": 5930,
      "sebesség": 5931,
      "kub": 5932,
      "hívó": 5933,
      "galamb": 5934,
      "szociál": 5935,
      "figyelő": 5936,
      "pillanat": 5937,
      "üvegház": 5938,
      "irányító": 5939,
      "üdvözlő": 5940,
      "személyiség": 5941,
      "bukó": 5942,
      "pszichi": 5943,
      "pszicho": 5944,
      "gombóc": 5945,
      "lopó": 5946,
      "processzor": 5947,
      "körülmetél": 5948,
      "biztosító": 5949,
      "szagló": 5950,
      "utánoz": 5951,
      "botan": 5952,
      "gyűlölő": 5953,
      "ragadozó": 5954,
      "hipn": 5955,
      "hiper": 5956,
      "kobalt": 5957,
      "málé": 5958,
      "pörkölt": 5959,
      "alkalmazott": 5960,
      "rabló": 5961,
      "csavaró": 5962,
      "nulla": 5963,
      "szavazó": 5964,
      "kedvezmény": 5965,
      "európ": 5966,
      "kincstár": 5967,
      "kukac": 5968,
      "ováció": 5969,
      "elszívó": 5970,
      "ébresztő": 5971,
      "felügyelő": 5972,
      "demokrata": 5973,
      "pikk": 5974,
      "tartóztat": 5975,
      "ellentmondás": 5976,
      "prostit": 5977,
      "zsoltáros": 5978,
      "mérsékel": 5979,
      "birtokos": 5980,
      "valószínűség": 5981,
      "sétáló": 5982,
      "eismer": 5983,
      "kibernet": 5984,
      "impresszion": 5985,
      "kapcsoló": 5986,
      "kábítószer": 5987,
      "töredezettségmentesít": 5988,
      "felnőtt": 5989,
      "tegnap": 5990,
      "bácsi": 5991,
      "diszting": 5992,
      "szombat": 5993,
      "teknős": 5994,
      "epilep": 5995,
      "bronzér": 5996,
      "éjjeli": 5997,
      "buddh": 5998,
      "hedon": 5999,
      "ezüstér": 6000,
      "fájdalom": 6001,
      "számítógép": 6002,
      "liliom": 6003,
      "antrop": 6004,
      "szemöldök": 6005,
      "plüss": 6006,
      "kúr": 6007,
      "ner": 6008,
      "rikus": 6009,
      "eldönt": 6010,
      "antál": 6011,
      "ege": 6012,
      "érv": 6013,
      "ora": 6014,
      "nyújt": 6015,
      "érthető": 6016,
      "megrendel": 6017,
      "tab": 6018,
      "izgat": 6019,
      "éget": 6020,
      "informál": 6021,
      "bevált": 6022,
      "kitalál": 6023,
      "telem": 6024,
      "ökl": 6025,
      "koncent": 6026,
      "perfor": 6027,
      "alkalm": 6028,
      "vége": 6029,
      "garantál": 6030,
      "bérel": 6031,
      "szimbol": 6032,
      "tusa": 6033,
      "vállal": 6034,
      "remél": 6035,
      "hozzáad": 6036,
      "rémiszt": 6037,
      "fertőz": 6038,
      "üzemeltet": 6039,
      "kombinál": 6040,
      "görbít": 6041,
      "igényel": 6042,
      "mártírom": 6043,
      "digit": 6044,
      "helyettesít": 6045,
      "elhanyagol": 6046,
      "hamisít": 6047,
      "koncentrál": 6048,
      "hai": 6049,
      "rászat": 6050,
      "óbia": 6051,
      "aljas": 6052,
      "nyár": 6053,
      "ntek": 6054,
      "isi": 6055,
      "örv": 6056,
      "hallé": 6057,
      "éder": 6058,
      "polc": 6059,
      "barna": 6060,
      "ellenes": 6061,
      "szolga": 6062,
      "szívű": 6063,
      "színű": 6064,
      "léma": 6065,
      "segg": 6066,
      "fogyasztó": 6067,
      "Ny": 6068,
      "tti": 6069,
      "otikus": 6070,
      "észi": 6071,
      "előtti": 6072,
      "korú": 6073,
      "koráb": 6074,
      "karma": 6075,
      "fokú": 6076,
      "országi": 6077,
      "szögű": 6078,
      "értelmű": 6079,
      "méretű": 6080,
      "Ant": 6081,
      "Aszt": 6082,
      "Hér": 6083,
      "Kar": 6084,
      "Nep": 6085,
      "ea": 6086,
      "ova": 6087,
      "we": 6088,
      "atlet": 6089,
      "andzs": 6090,
      "ömör": 6091,
      "rád": 6092,
      "bad": 6093,
      "öttem": 6094,
      "rezsi": 6095,
      "hurok": 6096,
      "giz": 6097,
      "há": 6098,
      "szü": 6099,
      "súlyos": 6100,
      "sw": 6101,
      "bag": 6102,
      "uti": 6103,
      "öní": 6104,
      "előny": 6105,
      "aszkusz": 6106,
      "iptom": 6107,
      "ingap": 6108,
      "ambik": 6109,
      "szobat": 6110,
      "gusztus": 6111,
      "ntelen": 6112,
      "esemény": 6113,
      "szerecs": 6114,
      "tisztesség": 6115,
      "tudatlan": 6116,
      "valószínű": 6117,
      "pimasz": 6118,
      "Kár": 6119,
      "fik": 6120,
      "kű": 6121,
      "nás": 6122,
      "vágyó": 6123,
      "kötet": 6124,
      "dicső": 6125,
      "tehet": 6126,
      "karak": 6127,
      "szakadt": 6128,
      "kedves": 6129,
      "tékony": 6130,
      "udvari": 6131,
      "zavaros": 6132,
      "enzív": 6133,
      "déli": 6134,
      "háborús": 6135,
      "buzgó": 6136,
      "lényeg": 6137,
      "speci": 6138,
      "arisztokrat": 6139,
      "fab": 6140,
      "álszent": 6141,
      "olasz": 6142,
      "reális": 6143,
      "rehány": 6144,
      "tös": 6145,
      "hatékony": 6146,
      "termet": 6147,
      "észő": 6148,
      "prű": 6149,
      "oper": 6150,
      "fogadó": 6151,
      "koros": 6152,
      "kóros": 6153,
      "szakáll": 6154,
      "öves": 6155,
      "vakmerő": 6156,
      "földes": 6157,
      "brili": 6158,
      "támadó": 6159,
      "fagyasztó": 6160,
      "ordon": 6161,
      "csíkos": 6162,
      "román": 6163,
      "tűnő": 6164,
      "savas": 6165,
      "gátló": 6166,
      "döntő": 6167,
      "jellemző": 6168,
      "gőzös": 6169,
      "negatív": 6170,
      "elektromos": 6171,
      "hősi": 6172,
      "zsúfolt": 6173,
      "kesztyűs": 6174,
      "általán": 6175,
      "briliáns": 6176,
      "Bé": 6177,
      "Bak": 6178,
      "Kor": 6179,
      "Li": 6180,
      "Ol": 6181,
      "Tok": 6182,
      "cér": 6183,
      "mú": 6184,
      "mért": 6185,
      "pú": 6186,
      "szexuális": 6187,
      "okrin": 6188,
      "erális": 6189,
      "élő": 6190,
      "kévaló": 6191,
      "igek": 6192,
      "raeli": 6193,
      "izraeli": 6194,
      "ciai": 6195,
      "ami": 6196,
      "iter": 6197,
      "lenáris": 6198,
      "endokrin": 6199,
      "kaszás": 6200,
      "örk": 6201,
      "étikus": 6202,
      "opé": 6203,
      "esztendő": 6204,
      "heter": 6205,
      "isztáni": 6206,
      "nevezet": 6207,
      "kói": 6208,
      "konstan": 6209,
      "ósd": 6210,
      "maródi": 6211,
      "tisz": 6212,
      "virtu": 6213,
      "fogyó": 6214,
      "meta": 6215,
      "mellkas": 6216,
      "emelkedő": 6217,
      "fülű": 6218,
      "időszak": 6219,
      "határozó": 6220,
      "klassz": 6221,
      "nyugat": 6222,
      "lábú": 6223,
      "csőváz": 6224,
      "ünne": 6225,
      "fakasztó": 6226,
      "szájú": 6227,
      "holdas": 6228,
      "inális": 6229,
      "feszély": 6230,
      "fontosság": 6231,
      "türkiz": 6232,
      "műveltség": 6233,
      "rozsd": 6234,
      "örökkévaló": 6235,
      "kerekű": 6236,
      "bíbor": 6237,
      "mennyiség": 6238,
      "tizedes": 6239,
      "jobboldal": 6240,
      "szinonim": 6241,
      "egyedül": 6242,
      "forintos": 6243,
      "pezs": 6244,
      "jugoszlá": 6245,
      "rózsaszín": 6246,
      "konstans": 6247,
      "imegy": 6248,
      "rud": 6249,
      "nekimegy": 6250,
      "ilenc": 6251,
      "korom": 6252,
      "illik": 6253,
      "madar": 6254,
      "tizenkilenc": 6255,
      "harmincegy": 6256,
      "múlik": 6257,
      "drága": 6258,
      "gyenge": 6259,
      "létrejön": 6260,
      "huszonkett": 6261,
      "huszonkilenc": 6262,
      "abbamarad": 6263,
      "Bel": 6264,
      "dől": 6265,
      "háta": 6266,
      "elkép": 6267,
      "elterjed": 6268,
      "heted": 6269,
      "tudomás": 6270,
      "támogató": 6271,
      "sors": 6272,
      "keresztül": 6273,
      "születik": 6274,
      "cégér": 6275,
      "reciprok": 6276,
      "bit": 6277,
      "búj": 6278,
      "bázik": 6279,
      "bein": 6280,
      "cam": 6281,
      "duk": 6282,
      "dong": 6283,
      "fos": 6284,
      "fint": 6285,
      "gág": 6286,
      "henc": 6287,
      "jő": 6288,
      "jjog": 6289,
      "küzd": 6290,
      "lük": 6291,
      "lav": 6292,
      "mozik": 6293,
      "oázik": 6294,
      "pöly": 6295,
      "rikál": 6296,
      "suh": 6297,
      "somp": 6298,
      "vony": 6299,
      "zol": 6300,
      "ziz": 6301,
      "ébr": 6302,
      "üget": 6303,
      "üszít": 6304,
      "őgy": 6305,
      "székel": 6306,
      "szellent": 6307,
      "elhal": 6308,
      "elkel": 6309,
      "elvész": 6310,
      "elfér": 6311,
      "elillan": 6312,
      "elfogy": 6313,
      "elkészül": 6314,
      "elindul": 6315,
      "elhalasztódik": 6316,
      "elpusztul": 6317,
      "elveszik": 6318,
      "eltéved": 6319,
      "elrepül": 6320,
      "elzsibbad": 6321,
      "ekeg": 6322,
      "alél": 6323,
      "okik": 6324,
      "orodik": 6325,
      "csam": 6326,
      "csám": 6327,
      "csellen": 6328,
      "csobban": 6329,
      "csüng": 6330,
      "nyüszít": 6331,
      "gyöng": 6332,
      "osolyog": 6333,
      "értesül": 6334,
      "megnő": 6335,
      "megalakul": 6336,
      "megnyilvánul": 6337,
      "megvalósul": 6338,
      "megnövekedik": 6339,
      "megtelik": 6340,
      "megsérül": 6341,
      "megszólam": 6342,
      "rajong": 6343,
      "éskedik": 6344,
      "beszáll": 6345,
      "becol": 6346,
      "befordul": 6347,
      "bepillant": 6348,
      "befolyik": 6349,
      "beszámol": 6350,
      "átalakul": 6351,
      "banduk": 6352,
      "rehalad": 6353,
      "kialakul": 6354,
      "kifolyik": 6355,
      "kiindul": 6356,
      "kiújul": 6357,
      "kiderül": 6358,
      "fellebbez": 6359,
      "felmászik": 6360,
      "imboly": 6361,
      "töpr": 6362,
      "vell": 6363,
      "szerepel": 6364,
      "ölög": 6365,
      "lecsend": 6366,
      "benéz": 6367,
      "naci": 6368,
      "állong": 6369,
      "örvend": 6370,
      "uttyol": 6371,
      "épül": 6372,
      "intrikál": 6373,
      "tanakodik": 6374,
      "tamáskodik": 6375,
      "előrehalad": 6376,
      "kordul": 6377,
      "hajol": 6378,
      "hajlik": 6379,
      "vetél": 6380,
      "vetélkedik": 6381,
      "szikkad": 6382,
      "vigyor": 6383,
      "vicsorog": 6384,
      "vijjog": 6385,
      "kóvályog": 6386,
      "ízül": 6387,
      "ízlik": 6388,
      "összené": 6389,
      "vonakodik": 6390,
      "vonatkozik": 6391,
      "visszal": 6392,
      "visszan": 6393,
      "képződik": 6394,
      "rival": 6395,
      "perdül": 6396,
      "mereng": 6397,
      "nagyzol": 6398,
      "ájul": 6399,
      "minős": 6400,
      "berreg": 6401,
      "vadul": 6402,
      "vérzik": 6403,
      "vitatkozik": 6404,
      "tolong": 6405,
      "gyógyul": 6406,
      "főnö": 6407,
      "visszaél": 6408,
      "avul": 6409,
      "tiszteleg": 6410,
      "hócipő": 6411,
      "ferdül": 6412,
      "részesül": 6413,
      "társul": 6414,
      "társalog": 6415,
      "zárul": 6416,
      "alapul": 6417,
      "szárnyal": 6418,
      "nyerít": 6419,
      "kodácsol": 6420,
      "brekeg": 6421,
      "kelepel": 6422,
      "aceton": 6423,
      "szorul": 6424,
      "támolyog": 6425,
      "vélekedik": 6426,
      "gyűlik": 6427,
      "regnál": 6428,
      "létesül": 6429,
      "lébecol": 6430,
      "időzik": 6431,
      "klászik": 6432,
      "hamburger": 6433,
      "verseng": 6434,
      "kopik": 6435,
      "lemarad": 6436,
      "csöng": 6437,
      "bajlódik": 6438,
      "fakad": 6439,
      "kuruttyol": 6440,
      "viszolyog": 6441,
      "robog": 6442,
      "virágzik": 6443,
      "települ": 6444,
      "telepedik": 6445,
      "bánik": 6446,
      "bizonyul": 6447,
      "vegyül": 6448,
      "repked": 6449,
      "odafigyel": 6450,
      "turbék": 6451,
      "rezeg": 6452,
      "szédeleg": 6453,
      "neveztetik": 6454,
      "közeleg": 6455,
      "lépked": 6456,
      "kotlik": 6457,
      "kotkodácsol": 6458,
      "irányul": 6459,
      "kelletlenkedik": 6460,
      "habog": 6461,
      "üdvözül": 6462,
      "remeg": 6463,
      "feszül": 6464,
      "feszeng": 6465,
      "vinnyog": 6466,
      "zöldell": 6467,
      "gyümölcsözik": 6468,
      "nyúlik": 6469,
      "borzong": 6470,
      "bóklászik": 6471,
      "ujjong": 6472,
      "vigad": 6473,
      "díszül": 6474,
      "módosul": 6475,
      "frissül": 6476,
      "fokozódik": 6477,
      "zavarog": 6478,
      "újjáalakul": 6479,
      "csillapul": 6480,
      "utánanéz": 6481,
      "relax": 6482,
      "csepeg": 6483,
      "botlik": 6484,
      "bátorság": 6485,
      "kulizik": 6486,
      "rövidül": 6487,
      "forgolódik": 6488,
      "bolondul": 6489,
      "gőzölög": 6490,
      "bomlik": 6491,
      "vénül": 6492,
      "vétkezik": 6493,
      "szétnéz": 6494,
      "biceg": 6495,
      "üzletel": 6496,
      "producer": 6497,
      "keményedik": 6498,
      "kívánság": 6499,
      "régész": 6500,
      "teljesül": 6501,
      "borékol": 6502,
      "gyorsul": 6503,
      "viszonyul": 6504,
      "részegedik": 6505,
      "kínlódik": 6506,
      "térképész": 6507,
      "kényszerül": 6508,
      "kösködik": 6509,
      "szilárdul": 6510,
      "lövell": 6511,
      "zakatol": 6512,
      "térdepel": 6513,
      "zsugorodik": 6514,
      "tisztázódik": 6515,
      "patakzik": 6516,
      "boldogul": 6517,
      "vokalizál": 6518,
      "zuhan": 6519,
      "megújul": 6520,
      "dögél": 6521,
      "hidegedik": 6522,
      "pánikol": 6523,
      "torzul": 6524,
      "felügyel": 6525,
      "görbül": 6526,
      "bugyog": 6527,
      "bugyborékol": 6528,
      "hullik": 6529,
      "bágyad": 6530,
      "fullad": 6531,
      "züllik": 6532,
      "elhelyezkedik": 6533,
      "hajlong": 6534,
      "fonnyad": 6535,
      "béget": 6536,
      "villamosozik": 6537,
      "sátorozik": 6538,
      "pityizál": 6539,
      "gyarapodik": 6540,
      "bódul": 6541,
      "nyikorog": 6542,
      "ropog": 6543,
      "kattog": 6544,
      "szendereg": 6545,
      "idétlenkedik": 6546,
      "szaporodik": 6547,
      "lassul": 6548,
      "hülyéskedik": 6549,
      "haldoklik": 6550,
      "tömörül": 6551,
      "rámutat": 6552,
      "rámosolyog": 6553,
      "vacillál": 6554,
      "kötekedik": 6555,
      "ülepedik": 6556,
      "alább": 6557,
      "tanítómester": 6558,
      "kivándorol": 6559,
      "nyűglődik": 6560,
      "röpköd": 6561,
      "titkolózik": 6562,
      "penészedik": 6563,
      "didereg": 6564,
      "fingik": 6565,
      "pöfékel": 6566,
      "tendál": 6567,
      "öbben": 6568,
      "emigrál": 6569,
      "tévelyeg": 6570,
      "barkochbázik": 6571,
      "füttyent": 6572,
      "émelyeg": 6573,
      "menekül": 6574,
      "dezertál": 6575,
      "együttérez": 6576,
      "cimbalmozik": 6577,
      "megkönnyebbül": 6578,
      "megújhodik": 6579,
      "elenyészik": 6580,
      "hömpöly": 6581,
      "kóborol": 6582,
      "elképed": 6583,
      "bújik": 6584,
      "beindul": 6585,
      "cammog": 6586,
      "gágog": 6587,
      "henceg": 6588,
      "lüktet": 6589,
      "lavíroz": 6590,
      "sompolyog": 6591,
      "vonyít": 6592,
      "zizeg": 6593,
      "ébred": 6594,
      "őgyeleg": 6595,
      "csamcsog": 6596,
      "csámcsog": 6597,
      "cselleng": 6598,
      "gyöngül": 6599,
      "megszólamlik": 6600,
      "bandukol": 6601,
      "imbolyog": 6602,
      "töpreng": 6603,
      "lecsendesül": 6604,
      "vigyorog": 6605,
      "összenéz": 6606,
      "visszalép": 6607,
      "visszanéz": 6608,
      "minősül": 6609,
      "főnökösködik": 6610,
      "turbékol": 6611,
      "relaxál": 6612,
      "hömpölyög": 6613,
      "ukl": 6614,
      "hamv": 6615,
      "zál": 6616,
      "elesik": 6617,
      "ragy": 6618,
      "ága": 6619,
      "kiesik": 6620,
      "visszaesik": 6621,
      "csúszik": 6622,
      "bőv": 6623,
      "Tu": 6624,
      "heny": 6625,
      "hód": 6626,
      "ics": 6627,
      "jut": 6628,
      "maszt": 6629,
      "pend": 6630,
      "ráng": 6631,
      "uktu": 6632,
      "istr": 6633,
      "uld": 6634,
      "apad": 6635,
      "kiszáll": 6636,
      "bencsol": 6637,
      "esztelen": 6638,
      "hetedik": 6639,
      "viszket": 6640,
      "ürül": 6641,
      "ministr": 6642,
      "spor": 6643,
      "spion": 6644,
      "vízis": 6645,
      "früs": 6646,
      "virrad": 6647,
      "párbaj": 6648,
      "kéreget": 6649,
      "patt": 6650,
      "menetel": 6651,
      "horkol": 6652,
      "reggel": 6653,
      "cseveg": 6654,
      "blöf": 6655,
      "fluktu": 6656,
      "robot": 6657,
      "repet": 6658,
      "cimbor": 6659,
      "biccent": 6660,
      "csökken": 6661,
      "szundít": 6662,
      "egyetért": 6663,
      "funkcionál": 6664,
      "prosper": 6665,
      "assziszt": 6666,
      "kunc": 6667,
      "förmed": 6668,
      "cirkusz": 6669,
      "fantáz": 6670,
      "ichel": 6671,
      "abortál": 6672,
      "tüsszent": 6673,
      "masztur": 6674,
      "fázik": 6675,
      "lázik": 6676,
      "pej": 6677,
      "rázik": 6678,
      "tolódik": 6679,
      "elalszik": 6680,
      "elhízik": 6681,
      "erezik": 6682,
      "csír": 6683,
      "nyosz": 6684,
      "élc": 6685,
      "adozik": 6686,
      "megelégedik": 6687,
      "megerősödik": 6688,
      "megéhezik": 6689,
      "ukar": 6690,
      "égtelenség": 6691,
      "ultiz": 6692,
      "beav": 6693,
      "beöltözik": 6694,
      "beérkezik": 6695,
      "civódik": 6696,
      "átöltözik": 6697,
      "átszökik": 6698,
      "kialszik": 6699,
      "felir": 6700,
      "felöltözik": 6701,
      "ettázik": 6702,
      "otthon": 6703,
      "telítő": 6704,
      "talom": 6705,
      "ejték": 6706,
      "ászkodik": 6707,
      "tetszik": 6708,
      "aszik": 6709,
      "verejték": 6710,
      "ugrik": 6711,
      "vetkő": 6712,
      "szikrázik": 6713,
      "törekedik": 6714,
      "vonakszik": 6715,
      "visszak": 6716,
      "teázik": 6717,
      "udozik": 6718,
      "várakozik": 6719,
      "kollek": 6720,
      "ombáskodik": 6721,
      "legózik": 6722,
      "alkudozik": 6723,
      "osztozik": 6724,
      "osztódik": 6725,
      "végződik": 6726,
      "marakodik": 6727,
      "marakszik": 6728,
      "veszekedik": 6729,
      "vitázik": 6730,
      "tolakszik": 6731,
      "világosodik": 6732,
      "mosakodik": 6733,
      "ellenkezik": 6734,
      "visszaemlékezik": 6735,
      "indok": 6736,
      "kérkedik": 6737,
      "kérőd": 6738,
      "tisztálkodik": 6739,
      "menedék": 6740,
      "ismerkedik": 6741,
      "változik": 6742,
      "védekezik": 6743,
      "zárkózik": 6744,
      "egyezkedik": 6745,
      "támaszkodik": 6746,
      "sorakozik": 6747,
      "szarakodik": 6748,
      "sértődik": 6749,
      "nyugszik": 6750,
      "fürdik": 6751,
      "engedetlenkedik": 6752,
      "dulakodik": 6753,
      "dulakszik": 6754,
      "pályázik": 6755,
      "pirosodik": 6756,
      "könnyezik": 6757,
      "elégszik": 6758,
      "panaszkodik": 6759,
      "telepszik": 6760,
      "bizonyság": 6761,
      "formálódik": 6762,
      "vizsgázik": 6763,
      "furakodik": 6764,
      "furakszik": 6765,
      "melegedik": 6766,
      "közeledik": 6767,
      "beleegyezik": 6768,
      "gyökerezik": 6769,
      "öltözet": 6770,
      "szub": 6771,
      "szerződik": 6772,
      "vigasz": 6773,
      "gombázik": 6774,
      "gombászik": 6775,
      "tollászkodik": 6776,
      "ígérkezik": 6777,
      "hullámzik": 6778,
      "fegyverkezik": 6779,
      "betegedik": 6780,
      "betegszik": 6781,
      "vonatozik": 6782,
      "helyezkedik": 6783,
      "dásodik": 6784,
      "vágyakozik": 6785,
      "csillapodik": 6786,
      "csillapszik": 6787,
      "öregszik": 6788,
      "fontoskodik": 6789,
      "próbálkozik": 6790,
      "vastagodik": 6791,
      "vastagszik": 6792,
      "táplálkozik": 6793,
      "foglalkozik": 6794,
      "kívánat": 6795,
      "alkalmazkodik": 6796,
      "hapcizik": 6797,
      "törődik": 6798,
      "gorombáskodik": 6799,
      "tétová": 6800,
      "részegszik": 6801,
      "vitorlázik": 6802,
      "bemutatkozik": 6803,
      "dicsekedik": 6804,
      "dicsekszik": 6805,
      "iszonyodik": 6806,
      "szórakozik": 6807,
      "tornázik": 6808,
      "hidegszik": 6809,
      "hivatkozik": 6810,
      "vállalkozik": 6811,
      "felháborodik": 6812,
      "meglepődik": 6813,
      "kalandozik": 6814,
      "idősödik": 6815,
      "gazdagodik": 6816,
      "gazdagszik": 6817,
      "vonzódik": 6818,
      "keletkezik": 6819,
      "gyülekszik": 6820,
      "gyülekezik": 6821,
      "féltékenykedik": 6822,
      "gyarapszik": 6823,
      "esküdik": 6824,
      "esküszik": 6825,
      "teniszezik": 6826,
      "hervadozik": 6827,
      "cselédkedik": 6828,
      "zúgolódik": 6829,
      "bejelentkezik": 6830,
      "hallatszik": 6831,
      "kötekszik": 6832,
      "ülepszik": 6833,
      "zuhanyzik": 6834,
      "tülekedik": 6835,
      "tülekszik": 6836,
      "golfozik": 6837,
      "kápé": 6838,
      "modellkedik": 6839,
      "ábrándozik": 6840,
      "fenyegetőzik": 6841,
      "vetekszik": 6842,
      "együttműködik": 6843,
      "gyanakodik": 6844,
      "civakodik": 6845,
      "zsörtölődik": 6846,
      "vakuzik": 6847,
      "játszódik": 6848,
      "viszálykodik": 6849,
      "cigarettázik": 6850,
      "sáfárkodik": 6851,
      "büszkélkedik": 6852,
      "tájékozódik": 6853,
      "bizonytalankodik": 6854,
      "szíveskedik": 6855,
      "zsémbeskedik": 6856,
      "tevékenykedik": 6857,
      "csírázik": 6858,
      "ultizik": 6859,
      "beavatkozik": 6860,
      "feliratkozik": 6861,
      "telítődik": 6862,
      "verejtékezik": 6863,
      "vetkőzik": 6864,
      "visszakozik": 6865,
      "kérődzik": 6866,
      "tétovázik": 6867,
      "bét": 6868,
      "jén": 6869,
      "lid": 6870,
      "mét": 6871,
      "ovány": 6872,
      "xtr": 6873,
      "áca": 6874,
      "sze": 6875,
      "etés": 6876,
      "alan": 6877,
      "csúz": 6878,
      "óleum": 6879,
      "ark": 6880,
      "emód": 6881,
      "kétel": 6882,
      "edelem": 6883,
      "igemód": 6884,
      "megállap": 6885,
      "ékosság": 6886,
      "ismét": 6887,
      "bam": 6888,
      "beosztás": 6889,
      "ille": 6890,
      "ülköz": 6891,
      "apáca": 6892,
      "amand": 6893,
      "ottó": 6894,
      "szerzetes": 6895,
      "bendzs": 6896,
      "talaj": 6897,
      "halmaz": 6898,
      "esztelés": 6899,
      "közön": 6900,
      "közrem": 6901,
      "illuszt": 6902,
      "eszköz": 6903,
      "törülköz": 6904,
      "ízel": 6905,
      "lakhely": 6906,
      "harag": 6907,
      "ádáz": 6908,
      "martal": 6909,
      "tünet": 6910,
      "járőr": 6911,
      "bara": 6912,
      "gyógyír": 6913,
      "útra": 6914,
      "nyomat": 6915,
      "váltság": 6916,
      "foxtr": 6917,
      "említés": 6918,
      "szárma": 6919,
      "választás": 6920,
      "sógor": 6921,
      "hála": 6922,
      "háttér": 6923,
      "éjszak": 6924,
      "töltés": 6925,
      "fizetés": 6926,
      "fedő": 6927,
      "ünch": 6928,
      "arcátlan": 6929,
      "építmény": 6930,
      "könyvtáros": 6931,
      "tilink": 6932,
      "mankó": 6933,
      "autókölcsönző": 6934,
      "hűség": 6935,
      "hordozó": 6936,
      "trágya": 6937,
      "ragadvány": 6938,
      "kenő": 6939,
      "táplálék": 6940,
      "büntetés": 6941,
      "bizonyítvány": 6942,
      "alatt": 6943,
      "ajakír": 6944,
      "majré": 6945,
      "burkolat": 6946,
      "uzson": 6947,
      "metszés": 6948,
      "összetart": 6949,
      "lidérc": 6950,
      "közremű": 6951,
      "foxtrott": 6952,
      "Alex": 6953,
      "Aph": 6954,
      "Ba": 6955,
      "Bi": 6956,
      "Bab": 6957,
      "Dan": 6958,
      "Ed": 6959,
      "Ger": 6960,
      "Hen": 6961,
      "Jord": 6962,
      "Kam": 6963,
      "Már": 6964,
      "Mag": 6965,
      "Móri": 6966,
      "Por": 6967,
      "Vik": 6968,
      "Willi": 6969,
      "Zsó": 6970,
      "aván": 6971,
      "auta": 6972,
      "bod": 6973,
      "bid": 6974,
      "but": 6975,
      "bob": 6976,
      "báció": 6977,
      "bika": 6978,
      "bosz": 6979,
      "báty": 6980,
      "cz": 6981,
      "cet": 6982,
      "cár": 6983,
      "cil": 6984,
      "cika": 6985,
      "cizmus": 6986,
      "cow": 6987,
      "diz": 6988,
      "dony": 6989,
      "dök": 6990,
      "dud": 6991,
      "dmény": 6992,
      "dram": 6993,
      "ditás": 6994,
      "dling": 6995,
      "dárda": 6996,
      "eon": 6997,
      "eor": 6998,
      "evet": 6999,
      "evény": 7000,
      "euta": 7001,
      "evél": 7002,
      "eológus": 7003,
      "fö": 7004,
      "fem": 7005,
      "fap": 7006,
      "faz": 7007,
      "fun": 7008,
      "fti": 7009,
      "fázis": 7010,
      "fólia": 7011,
      "fáklya": 7012,
      "gé": 7013,
      "gin": 7014,
      "gil": 7015,
      "gli": 7016,
      "gri": 7017,
      "gács": 7018,
      "galmas": 7019,
      "gáncs": 7020,
      "hek": 7021,
      "hod": 7022,
      "his": 7023,
      "hör": 7024,
      "hesz": 7025,
      "hóz": 7026,
      "húg": 7027,
      "háncs": 7028,
      "hotel": 7029,
      "henger": 7030,
      "ián": 7031,
      "icc": 7032,
      "ivonat": 7033,
      "jat": 7034,
      "jer": 7035,
      "kra": 7036,
      "kaszt": 7037,
      "kály": 7038,
      "kvar": 7039,
      "kőr": 7040,
      "kló": 7041,
      "kli": 7042,
      "kotta": 7043,
      "kelme": 7044,
      "kvirt": 7045,
      "lu": 7046,
      "lí": 7047,
      "laj": 7048,
      "lúd": 7049,
      "mól": 7050,
      "mít": 7051,
      "mát": 7052,
      "máz": 7053,
      "mös": 7054,
      "moly": 7055,
      "mang": 7056,
      "mosz": 7057,
      "mec": 7058,
      "num": 7059,
      "nob": 7060,
      "nud": 7061,
      "noszt": 7062,
      "oizmus": 7063,
      "ogyó": 7064,
      "p.": 7065,
      "pes": 7066,
      "puk": 7067,
      "pod": 7068,
      "pír": 7069,
      "pag": 7070,
      "put": 7071,
      "pony": 7072,
      "péz": 7073,
      "pun": 7074,
      "plat": 7075,
      "pió": 7076,
      "panda": 7077,
      "pincér": 7078,
      "rod": 7079,
      "rot": 7080,
      "riz": 7081,
      "rum": 7082,
      "rut": 7083,
      "rén": 7084,
      "rosz": 7085,
      "rönt": 7086,
      "sv": 7087,
      "sé": 7088,
      "sás": 7089,
      "soly": 7090,
      "skor": 7091,
      "sing": 7092,
      "sánc": 7093,
      "séta": 7094,
      "sche": 7095,
      "súgó": 7096,
      "sirály": 7097,
      "sitt": 7098,
      "tály": 7099,
      "tun": 7100,
      "tinta": 7101,
      "tigris": 7102,
      "uen": 7103,
      "uáció": 7104,
      "ubor": 7105,
      "ualitás": 7106,
      "vek": 7107,
      "vand": 7108,
      "volt": 7109,
      "vódás": 7110,
      "vödör": 7111,
      "werk": 7112,
      "xel": 7113,
      "xen": 7114,
      "xik": 7115,
      "xit": 7116,
      "xír": 7117,
      "zm": 7118,
      "zeg": 7119,
      "zubb": 7120,
      "zebra": 7121,
      "Ár": 7122,
      "Ági": 7123,
      "áfi": 7124,
      "ácium": 7125,
      "éma": 7126,
      "íj": 7127,
      "íny": 7128,
      "ína": 7129,
      "íjá": 7130,
      "ípia": 7131,
      "ícium": 7132,
      "ídium": 7133,
      "ócs": 7134,
      "ózs": 7135,
      "ótár": 7136,
      "ómus": 7137,
      "ópa": 7138,
      "óterem": 7139,
      "ória": 7140,
      "ózsa": 7141,
      "óce": 7142,
      "ökör": 7143,
      "úk": 7144,
      "úció": 7145,
      "őjel": 7146,
      "űvész": 7147,
      "szei": 7148,
      "szul": 7149,
      "szit": 7150,
      "szegy": 7151,
      "szum": 7152,
      "szelő": 7153,
      "szand": 7154,
      "szűz": 7155,
      "elef": 7156,
      "ekő": 7157,
      "ete": 7158,
      "etil": 7159,
      "etika": 7160,
      "akett": 7161,
      "akvar": 7162,
      "aktus": 7163,
      "akasztó": 7164,
      "aktí": 7165,
      "enállás": 7166,
      "álkodás": 7167,
      "iker": 7168,
      "ikett": 7169,
      "ikűr": 7170,
      "ikanista": 7171,
      "alul": 7172,
      "alett": 7173,
      "alkar": 7174,
      "anő": 7175,
      "anol": 7176,
      "aneszt": 7177,
      "okat": 7178,
      "okni": 7179,
      "atit": 7180,
      "atőr": 7181,
      "erit": 7182,
      "ervez": 7183,
      "erátum": 7184,
      "erancia": 7185,
      "egély": 7186,
      "onáció": 7187,
      "onima": 7188,
      "onometria": 7189,
      "oli": 7190,
      "olig": 7191,
      "olit": 7192,
      "oltár": 7193,
      "olív": 7194,
      "érés": 7195,
      "orna": 7196,
      "orca": 7197,
      "ortyán": 7198,
      "oráma": 7199,
      "csá": 7200,
      "csar": 7201,
      "csit": 7202,
      "csag": 7203,
      "csut": 7204,
      "csony": 7205,
      "csizma": 7206,
      "nyon": 7207,
      "nyáj": 7208,
      "nyest": 7209,
      "nyírás": 7210,
      "arz": 7211,
      "ára": 7212,
      "árok": 7213,
      "ártya": 7214,
      "árfolyam": 7215,
      "áradat": 7216,
      "ain": 7217,
      "emelő": 7218,
      "gya": 7219,
      "gyep": 7220,
      "gyöm": 7221,
      "éla": 7222,
      "élől": 7223,
      "omlás": 7224,
      "ométer": 7225,
      "esó": 7226,
      "esszió": 7227,
      "sztár": 7228,
      "sztüm": 7229,
      "kéj": 7230,
      "edzs": 7231,
      "igán": 7232,
      "adér": 7233,
      "adin": 7234,
      "oss": 7235,
      "értelem": 7236,
      "megszak": 7237,
      "megrend": 7238,
      "meghatár": 7239,
      "megálló": 7240,
      "megindít": 7241,
      "uktív": 7242,
      "őlámpa": 7243,
      "rac": 7244,
      "ramoz": 7245,
      "váció": 7246,
      "vászon": 7247,
      "ékcsont": 7248,
      "taur": 7249,
      "izika": 7250,
      "ogi": 7251,
      "ogár": 7252,
      "ogány": 7253,
      "ogizmus": 7254,
      "éghajlat": 7255,
      "isak": 7256,
      "baseb": 7257,
      "kömény": 7258,
      "inol": 7259,
      "indik": 7260,
      "informat": 7261,
      "infark": 7262,
      "ulátum": 7263,
      "teke": 7264,
      "befek": 7265,
      "bevásárló": 7266,
      "ilap": 7267,
      "ilip": 7268,
      "ilalom": 7269,
      "nix": 7270,
      "nitás": 7271,
      "uska": 7272,
      "cic": 7273,
      "cisz": 7274,
      "cita": 7275,
      "cius": 7276,
      "átvitel": 7277,
      "jaj": 7278,
      "apan": 7279,
      "apeuta": 7280,
      "apatit": 7281,
      "véta": 7282,
      "banc": 7283,
      "banán": 7284,
      "reud": 7285,
      "rece": 7286,
      "rexit": 7287,
      "reszelő": 7288,
      "néni": 7289,
      "kimer": 7290,
      "kiolt": 7291,
      "kivitel": 7292,
      "kijárat": 7293,
      "kiáltás": 7294,
      "ázás": 7295,
      "felkar": 7296,
      "felirat": 7297,
      "felszerelés": 7298,
      "ider": 7299,
      "ident": 7300,
      "ánusz": 7301,
      "ánizs": 7302,
      "amf": 7303,
      "amid": 7304,
      "amosság": 7305,
      "améter": 7306,
      "ité": 7307,
      "iton": 7308,
      "itáció": 7309,
      "imon": 7310,
      "imental": 7311,
      "import": 7312,
      "imalac": 7313,
      "ettan": 7314,
      "zse": 7315,
      "zsel": 7316,
      "zsett": 7317,
      "zsde": 7318,
      "zsakett": 7319,
      "egyes": 7320,
      "egyház": 7321,
      "egyipt": 7322,
      "szeráj": 7323,
      "szerda": 7324,
      "szervecske": 7325,
      "agép": 7326,
      "agres": 7327,
      "asztika": 7328,
      "telék": 7329,
      "ámulat": 7330,
      "lec": 7331,
      "leves": 7332,
      "leírás": 7333,
      "otokoll": 7334,
      "abó": 7335,
      "abak": 7336,
      "aboly": 7337,
      "abszint": 7338,
      "terítő": 7339,
      "terápia": 7340,
      "naszád": 7341,
      "nacionalizmus": 7342,
      "iroda": 7343,
      "jászol": 7344,
      "tali": 7345,
      "állvány": 7346,
      "állomány": 7347,
      "állkapocs": 7348,
      "uralom": 7349,
      "kaik": 7350,
      "kavi": 7351,
      "kacsont": 7352,
      "prizma": 7353,
      "protokoll": 7354,
      "mahar": 7355,
      "maszk": 7356,
      "utomat": 7357,
      "utcal": 7358,
      "tábl": 7359,
      "épés": 7360,
      "jelzés": 7361,
      "trium": 7362,
      "étterem": 7363,
      "operáció": 7364,
      "opátia": 7365,
      "halánt": 7366,
      "dikt": 7367,
      "dikó": 7368,
      "tank": 7369,
      "tanya": 7370,
      "tanga": 7371,
      "tárcsa": 7372,
      "obeli": 7373,
      "válság": 7374,
      "váladék": 7375,
      "esztin": 7376,
      "tamin": 7377,
      "onyat": 7378,
      "fogmeder": 7379,
      "előtt": 7380,
      "tetra": 7381,
      "aszin": 7382,
      "aszűr": 7383,
      "korszak": 7384,
      "korong": 7385,
      "korrek": 7386,
      "korpusz": 7387,
      "kornett": 7388,
      "ontás": 7389,
      "ander": 7390,
      "andár": 7391,
      "verés": 7392,
      "verbunk": 7393,
      "nesz": 7394,
      "neut": 7395,
      "nevelés": 7396,
      "dita": 7397,
      "diadal": 7398,
      "közgazdaság": 7399,
      "köztársaság": 7400,
      "kerület": 7401,
      "inka": 7402,
      "hajós": 7403,
      "hajítás": 7404,
      "hajtű": 7405,
      "hajgyökér": 7406,
      "artás": 7407,
      "ugatás": 7408,
      "ugáter": 7409,
      "iporter": 7410,
      "musli": 7411,
      "eszme": 7412,
      "uszik": 7413,
      "azokni": 7414,
      "epció": 7415,
      "agyag": 7416,
      "agyull": 7417,
      "újd": 7418,
      "szikla": 7419,
      "vari": 7420,
      "varánusz": 7421,
      "vium": 7422,
      "vivő": 7423,
      "törtök": 7424,
      "törött": 7425,
      "kócsag": 7426,
      "elmesség": 7427,
      "lóság": 7428,
      "lakmusz": 7429,
      "lakivonat": 7430,
      "fejő": 7431,
      "szemhéj": 7432,
      "vonás": 7433,
      "vonzás": 7434,
      "vonulat": 7435,
      "tea": 7436,
      "harcsa": 7437,
      "harmat": 7438,
      "éner": 7439,
      "udit": 7440,
      "koh": 7441,
      "kosztüm": 7442,
      "műszer": 7443,
      "műhely": 7444,
      "műtét": 7445,
      "műbútor": 7446,
      "ézer": 7447,
      "ézis": 7448,
      "chesz": 7449,
      "chológia": 7450,
      "karam": 7451,
      "karaj": 7452,
      "karika": 7453,
      "karvaly": 7454,
      "karaván": 7455,
      "likőr": 7456,
      "rács": 7457,
      "háztartás": 7458,
      "várvány": 7459,
      "várium": 7460,
      "tőcsont": 7461,
      "tőzeg": 7462,
      "tőzsde": 7463,
      "szósz": 7464,
      "szóma": 7465,
      "liba": 7466,
      "lium": 7467,
      "licsi": 7468,
      "lift": 7469,
      "helyzet": 7470,
      "helyezés": 7471,
      "zőszerv": 7472,
      "kollég": 7473,
      "vaság": 7474,
      "üröm": 7475,
      "ürmös": 7476,
      "etlenkedés": 7477,
      "und": 7478,
      "undum": 7479,
      "unokat": 7480,
      "rix": 7481,
      "rian": 7482,
      "inga": 7483,
      "ábé": 7484,
      "ábra": 7485,
      "perjel": 7486,
      "szakács": 7487,
      "szakadás": 7488,
      "téboly": 7489,
      "tészta": 7490,
      "űrhajó": 7491,
      "számlakivonat": 7492,
      "ádé": 7493,
      "ádám": 7494,
      "letta": 7495,
      "merény": 7496,
      "legó": 7497,
      "nagykövet": 7498,
      "alkuszik": 7499,
      "jekció": 7500,
      "oszta": 7501,
      "osztag": 7502,
      "hangolás": 7503,
      "lekvár": 7504,
      "szivar": 7505,
      "szivárvány": 7506,
      "köldök": 7507,
      "végzés": 7508,
      "végbél": 7509,
      "parap": 7510,
      "parfü": 7511,
      "paradi": 7512,
      "fahéj": 7513,
      "rendelet": 7514,
      "marhas": 7515,
      "market": 7516,
      "fióka": 7517,
      "fiók": 7518,
      "spon": 7519,
      "spin": 7520,
      "spicc": 7521,
      "estvér": 7522,
      "estélyi": 7523,
      "komment": 7524,
      "kompon": 7525,
      "kaptár": 7526,
      "pola": 7527,
      "térség": 7528,
      "kígyász": 7529,
      "belügy": 7530,
      "ózon": 7531,
      "ózes": 7532,
      "őssejt": 7533,
      "víztan": 7534,
      "ügyesség": 7535,
      "oszlop": 7536,
      "küllő": 7537,
      "tütü": 7538,
      "tüdő": 7539,
      "tüzér": 7540,
      "bizottság": 7541,
      "mérleg": 7542,
      "hiéna": 7543,
      "járd": 7544,
      "tisza": 7545,
      "tivitás": 7546,
      "tivizmus": 7547,
      "barhesz": 7548,
      "barchesz": 7549,
      "vérzés": 7550,
      "naptár": 7551,
      "pacs": 7552,
      "paci": 7553,
      "plazma": 7554,
      "fru": 7555,
      "füzet": 7556,
      "tartály": 7557,
      "kantár": 7558,
      "kanca": 7559,
      "góré": 7560,
      "émia": 7561,
      "bium": 7562,
      "biológia": 7563,
      "biof": 7564,
      "bibli": 7565,
      "összehasonlít": 7566,
      "ódus": 7567,
      "ódsugár": 7568,
      "kalor": 7569,
      "kalács": 7570,
      "főnix": 7571,
      "lőszer": 7572,
      "ácsa": 7573,
      "mosogató": 7574,
      "mozi": 7575,
      "mozaik": 7576,
      "mozdony": 7577,
      "vakbél": 7578,
      "indzsa": 7579,
      "pára": 7580,
      "párbeszéd": 7581,
      "párkány": 7582,
      "ofőr": 7583,
      "ofiton": 7584,
      "Szil": 7585,
      "veszteség": 7586,
      "csibe": 7587,
      "tisztség": 7588,
      "patron": 7589,
      "patkány": 7590,
      "lye": 7591,
      "hárs": 7592,
      "hármas": 7593,
      "készlet": 7594,
      "készülés": 7595,
      "menés": 7596,
      "menedzs": 7597,
      "útik": 7598,
      "folyadék": 7599,
      "baleset": 7600,
      "nyomda": 7601,
      "nyomozó": 7602,
      "váltás": 7603,
      "változat": 7604,
      "csapágy": 7605,
      "csapda": 7606,
      "dobás": 7607,
      "krit": 7608,
      "kriszt": 7609,
      "krip": 7610,
      "kript": 7611,
      "toxik": 7612,
      "toalett": 7613,
      "hón": 7614,
      "foc": 7615,
      "foci": 7616,
      "szalma": 7617,
      "szalont": 7618,
      "szalvéta": 7619,
      "meteor": 7620,
      "katulya": 7621,
      "katódsugár": 7622,
      "cserép": 7623,
      "cserje": 7624,
      "csereb": 7625,
      "részecske": 7626,
      "deci": 7627,
      "deviz": 7628,
      "paplan": 7629,
      "magnó": 7630,
      "magasság": 7631,
      "hernyó": 7632,
      "beszélő": 7633,
      "beszélgetés": 7634,
      "bura": 7635,
      "bubi": 7636,
      "zárd": 7637,
      "zárlat": 7638,
      "dzsi": 7639,
      "dzsé": 7640,
      "dzsem": 7641,
      "dzsud": 7642,
      "gépkocsi": 7643,
      "ióma": 7644,
      "vese": 7645,
      "horog": 7646,
      "hormon": 7647,
      "fénymás": 7648,
      "szárkapocs": 7649,
      "nyeremény": 7650,
      "tarkó": 7651,
      "taréj": 7652,
      "életrajz": 7653,
      "hasáb": 7654,
      "kelep": 7655,
      "keleti": 7656,
      "szorpció": 7657,
      "szabadkő": 7658,
      "kisbolygó": 7659,
      "rágó": 7660,
      "ütés": 7661,
      "deráció": 7662,
      "egyezés": 7663,
      "egyezmény": 7664,
      "emelés": 7665,
      "almár": 7666,
      "orvosság": 7667,
      "függvény": 7668,
      "függöny": 7669,
      "pion": 7670,
      "piram": 7671,
      "strand": 7672,
      "strázs": 7673,
      "strucc": 7674,
      "távozás": 7675,
      "csaft": 7676,
      "tűzhely": 7677,
      "láma": 7678,
      "vencia": 7679,
      "légkör": 7680,
      "légkondi": 7681,
      "sármány": 7682,
      "sárgar": 7683,
      "fültő": 7684,
      "gyűszű": 7685,
      "regáció": 7686,
      "lapát": 7687,
      "lapoc": 7688,
      "póker": 7689,
      "póré": 7690,
      "létra": 7691,
      "filc": 7692,
      "filiszt": 7693,
      "filkó": 7694,
      "filozó": 7695,
      "szaru": 7696,
      "lová": 7697,
      "kamu": 7698,
      "kamera": 7699,
      "home": 7700,
      "roncs": 7701,
      "radír": 7702,
      "pala": 7703,
      "palesztin": 7704,
      "szelet": 7705,
      "szelence": 7706,
      "ködés": 7707,
      "klip": 7708,
      "klub": 7709,
      "klinika": 7710,
      "csecs": 7711,
      "csecsem": 7712,
      "cukrász": 7713,
      "kilométer": 7714,
      "tölgy": 7715,
      "töltelék": 7716,
      "nyugta": 7717,
      "nyugdíjas": 7718,
      "fürt": 7719,
      "doksi": 7720,
      "síp": 7721,
      "lábszár": 7722,
      "lábközép": 7723,
      "garat": 7724,
      "garnél": 7725,
      "gardró": 7726,
      "matika": 7727,
      "szentimental": 7728,
      "bilincs": 7729,
      "burnó": 7730,
      "pénzügy": 7731,
      "pénztáros": 7732,
      "gyertya": 7733,
      "gerle": 7734,
      "gerely": 7735,
      "görény": 7736,
      "szekér": 7737,
      "csóka": 7738,
      "kézközép": 7739,
      "termék": 7740,
      "termelő": 7741,
      "flas": 7742,
      "jegyzés": 7743,
      "sark": 7744,
      "csatorna": 7745,
      "alávaló": 7746,
      "faktor": 7747,
      "faktum": 7748,
      "rekord": 7749,
      "aranyoz": 7750,
      "találkozó": 7751,
      "féra": 7752,
      "férc": 7753,
      "bőgő": 7754,
      "daru": 7755,
      "darw": 7756,
      "rovar": 7757,
      "segély": 7758,
      "panel": 7759,
      "telepítő": 7760,
      "bánat": 7761,
      "évfolyam": 7762,
      "arckép": 7763,
      "fűző": 7764,
      "fűtés": 7765,
      "hadsereg": 7766,
      "futball": 7767,
      "holnap": 7768,
      "középiskola": 7769,
      "tömés": 7770,
      "boj": 7771,
      "gondolkodó": 7772,
      "takaró": 7773,
      "cionizmus": 7774,
      "fotel": 7775,
      "demokrácia": 7776,
      "modul": 7777,
      "gazdálkodás": 7778,
      "csíny": 7779,
      "csíkoz": 7780,
      "padló": 7781,
      "padlás": 7782,
      "repülés": 7783,
      "szeder": 7784,
      "bakancs": 7785,
      "bárd": 7786,
      "bárány": 7787,
      "bárium": 7788,
      "dezodor": 7789,
      "csipet": 7790,
      "csipesz": 7791,
      "csipke": 7792,
      "pápa": 7793,
      "szolgáltatás": 7794,
      "szolgáltató": 7795,
      "diszkó": 7796,
      "diszkosz": 7797,
      "cukorka": 7798,
      "tűző": 7799,
      "vizsga": 7800,
      "szinti": 7801,
      "hívás": 7802,
      "nyakkendő": 7803,
      "galeri": 7804,
      "galuska": 7805,
      "szomj": 7806,
      "manikűr": 7807,
      "manzárd": 7808,
      "nyolcvan": 7809,
      "harminch": 7810,
      "szocializmus": 7811,
      "béka": 7812,
      "resty": 7813,
      "birkó": 7814,
      "állampolgár": 7815,
      "húslé": 7816,
      "kontakt": 7817,
      "konténer": 7818,
      "próf": 7819,
      "próba": 7820,
      "lépcső": 7821,
      "rázás": 7822,
      "kotlós": 7823,
      "küldött": 7824,
      "kakaó": 7825,
      "óriporter": 7826,
      "pillangó": 7827,
      "tettes": 7828,
      "elixír": 7829,
      "postás": 7830,
      "lexia": 7831,
      "hajótörött": 7832,
      "misszion": 7833,
      "fordító": 7834,
      "réció": 7835,
      "réce": 7836,
      "And": 7837,
      "öltöny": 7838,
      "intervall": 7839,
      "pasas": 7840,
      "személyzet": 7841,
      "tervezés": 7842,
      "rokonság": 7843,
      "istálló": 7844,
      "vinizmus": 7845,
      "zöldség": 7846,
      "hálószoba": 7847,
      "centrum": 7848,
      "centralizáció": 7849,
      "levéltáros": 7850,
      "levéltetű": 7851,
      "rejtvény": 7852,
      "rétes": 7853,
      "rétum": 7854,
      "onka": 7855,
      "orica": 7856,
      "oriental": 7857,
      "orientáció": 7858,
      "vátum": 7859,
      "tájkép": 7860,
      "ogramma": 7861,
      "módszer": 7862,
      "mufti": 7863,
      "áramlás": 7864,
      "dolgozat": 7865,
      "poén": 7866,
      "pohár": 7867,
      "cselekmény": 7868,
      "molnár": 7869,
      "áruló": 7870,
      "hurut": 7871,
      "sakál": 7872,
      "csomó": 7873,
      "presszió": 7874,
      "videok": 7875,
      "motívum": 7876,
      "köpöny": 7877,
      "idézőjel": 7878,
      "töltény": 7879,
      "agglom": 7880,
      "éneklés": 7881,
      "reláció": 7882,
      "relativitás": 7883,
      "sütemény": 7884,
      "önyv": 7885,
      "terhesség": 7886,
      "mérgezés": 7887,
      "kulcs": 7888,
      "alacsony": 7889,
      "honvéd": 7890,
      "forgalom": 7891,
      "icizmus": 7892,
      "fogadós": 7893,
      "szövetkezet": 7894,
      "kémia": 7895,
      "dinnye": 7896,
      "szenvedély": 7897,
      "dráma": 7898,
      "rost": 7899,
      "rosta": 7900,
      "mikrof": 7901,
      "fertőzés": 7902,
      "redő": 7903,
      "szobor": 7904,
      "hidrát": 7905,
      "labdar": 7906,
      "korcsolya": 7907,
      "csirke": 7908,
      "csirkesz": 7909,
      "hipot": 7910,
      "idea": 7911,
      "diszkréció": 7912,
      "ruházat": 7913,
      "produkció": 7914,
      "éhség": 7915,
      "tejszín": 7916,
      "údó": 7917,
      "kegyelem": 7918,
      "sárgabar": 7919,
      "mókus": 7920,
      "rablás": 7921,
      "szirup": 7922,
      "vallomás": 7923,
      "pálma": 7924,
      "pálcika": 7925,
      "benyomás": 7926,
      "aktivitás": 7927,
      "dörgés": 7928,
      "növényzet": 7929,
      "konzerv": 7930,
      "szülész": 7931,
      "tükörszó": 7932,
      "máglya": 7933,
      "csütörtök": 7934,
      "pedál": 7935,
      "alattom": 7936,
      "vitorlás": 7937,
      "toportyán": 7938,
      "rózsaolaj": 7939,
      "bemutató": 7940,
      "arató": 7941,
      "lövész": 7942,
      "lökés": 7943,
      "szellő": 7944,
      "szellem": 7945,
      "bombázó": 7946,
      "döfés": 7947,
      "dokumentum": 7948,
      "egészségügy": 7949,
      "csendőr": 7950,
      "lándzsa": 7951,
      "tekercs": 7952,
      "forradalom": 7953,
      "alógus": 7954,
      "kereskedő": 7955,
      "munkaerő": 7956,
      "grafika": 7957,
      "csokoládény": 7958,
      "karácsonyfa": 7959,
      "sűrűség": 7960,
      "iliter": 7961,
      "készülék": 7962,
      "elvtárs": 7963,
      "szülőfalu": 7964,
      "licizmus": 7965,
      "hangyász": 7966,
      "major": 7967,
      "majom": 7968,
      "halászlé": 7969,
      "kórtan": 7970,
      "bölcső": 7971,
      "duma": 7972,
      "trombita": 7973,
      "formatervez": 7974,
      "tapasztalat": 7975,
      "ijeszt": 7976,
      "ánka": 7977,
      "analízis": 7978,
      "kiállítás": 7979,
      "keringés": 7980,
      "reflektor": 7981,
      "kukorica": 7982,
      "szlovén": 7983,
      "kvint": 7984,
      "nejűség": 7985,
      "protek": 7986,
      "fixír": 7987,
      "szenvedés": 7988,
      "ehen": 7989,
      "gubó": 7990,
      "mutáció": 7991,
      "mechanika": 7992,
      "árnyalat": 7993,
      "kapcsolat": 7994,
      "koktél": 7995,
      "összefüggés": 7996,
      "kultusz": 7997,
      "kábel": 7998,
      "zsinór": 7999,
      "csípés": 8000,
      "kemping": 8001,
      "bordély": 8002,
      "szeretet": 8003,
      "trapéz": 8004,
      "fenyő": 8005,
      "unió": 8006,
      "péntek": 8007,
      "újságírás": 8008,
      "sövény": 8009,
      "samesz": 8010,
      "csomagtartó": 8011,
      "vacsora": 8012,
      "lelkiismeret": 8013,
      "riasztás": 8014,
      "másolat": 8015,
      "rengés": 8016,
      "pihe": 8017,
      "példány": 8018,
      "ilabda": 8019,
      "macesz": 8020,
      "cellár": 8021,
      "fenntartó": 8022,
      "figura": 8023,
      "sütés": 8024,
      "felvonó": 8025,
      "integráció": 8026,
      "rejtek": 8027,
      "sekresty": 8028,
      "oroszlán": 8029,
      "influen": 8030,
      "borostyán": 8031,
      "pozíció": 8032,
      "bódé": 8033,
      "parancsolat": 8034,
      "dűne": 8035,
      "kajszibarack": 8036,
      "karton": 8037,
      "kádár": 8038,
      "pogány": 8039,
      "csoki": 8040,
      "nyálka": 8041,
      "ballada": 8042,
      "fuser": 8043,
      "javaslat": 8044,
      "programoz": 8045,
      "frizura": 8046,
      "struktúra": 8047,
      "korcsolyázás": 8048,
      "förgeteg": 8049,
      "bűnözés": 8050,
      "vulkan": 8051,
      "becsületszó": 8052,
      "bábu": 8053,
      "bölcsesség": 8054,
      "fogyatkozás": 8055,
      "pipere": 8056,
      "ezredes": 8057,
      "macskak": 8058,
      "üzemanyag": 8059,
      "almafa": 8060,
      "lombik": 8061,
      "energia": 8062,
      "egyenlőség": 8063,
      "szinonima": 8064,
      "nyelvészet": 8065,
      "káposzta": 8066,
      "cédrus": 8067,
      "milliárd": 8068,
      "milliomos": 8069,
      "vértest": 8070,
      "áfonya": 8071,
      "zsalugáter": 8072,
      "szereplő": 8073,
      "asztronómia": 8074,
      "kazal": 8075,
      "préri": 8076,
      "illatszer": 8077,
      "mandulaolaj": 8078,
      "rúgás": 8079,
      "toboz": 8080,
      "elkövető": 8081,
      "rántotta": 8082,
      "gyűjtés": 8083,
      "igazolvány": 8084,
      "determin": 8085,
      "előfordulás": 8086,
      "higany": 8087,
      "fattyú": 8088,
      "kebel": 8089,
      "rúzs": 8090,
      "vamzer": 8091,
      "zenekar": 8092,
      "adósság": 8093,
      "átkelőhely": 8094,
      "bennszülött": 8095,
      "halandóság": 8096,
      "halogénlámpa": 8097,
      "őrendszer": 8098,
      "koszorú": 8099,
      "származás": 8100,
      "juhász": 8101,
      "burgonya": 8102,
      "himnusz": 8103,
      "hokedli": 8104,
      "kamaraz": 8105,
      "nyílás": 8106,
      "köntös": 8107,
      "ityúk": 8108,
      "pajzsmirigy": 8109,
      "Adri": 8110,
      "Isten": 8111,
      "Polgár": 8112,
      "bátya": 8113,
      "bögöly": 8114,
      "cast": 8115,
      "degrad": 8116,
      "gipsz": 8117,
      "kender": 8118,
      "póló": 8119,
      "pompa": 8120,
      "pletyka": 8121,
      "répa": 8122,
      "roller": 8123,
      "sólet": 8124,
      "sámán": 8125,
      "szezám": 8126,
      "nátha": 8127,
      "immunitás": 8128,
      "zsemle": 8129,
      "zsoldos": 8130,
      "tréning": 8131,
      "kolibri": 8132,
      "franci": 8133,
      "makrofot": 8134,
      "kupac": 8135,
      "pecsenye": 8136,
      "pedagógia": 8137,
      "vitorlázás": 8138,
      "forgatókönyv": 8139,
      "Széch": 8140,
      "szelídgesztenye": 8141,
      "traktor": 8142,
      "fuga": 8143,
      "ibilitás": 8144,
      "csésze": 8145,
      "levendula": 8146,
      "cseresznye": 8147,
      "játszma": 8148,
      "közönség": 8149,
      "kenőcs": 8150,
      "Aphrod": 8151,
      "Dante": 8152,
      "Porsche": 8153,
      "William": 8154,
      "boszor": 8155,
      "cowboy": 8156,
      "dramatur": 8157,
      "föderáció": 8158,
      "griff": 8159,
      "história": 8160,
      "hörcsög": 8161,
      "hózent": 8162,
      "klór": 8163,
      "luc": 8164,
      "líra": 8165,
      "mítosz": 8166,
      "pukedli": 8167,
      "podcast": 8168,
      "ponyva": 8169,
      "röntgen": 8170,
      "svind": 8171,
      "uborka": 8172,
      "zubbony": 8173,
      "áfium": 8174,
      "óceán": 8175,
      "szeizm": 8176,
      "elefánt": 8177,
      "akvarell": 8178,
      "aktínium": 8179,
      "csarnok": 8180,
      "gyömbér": 8181,
      "megszakítás": 8182,
      "meghatározás": 8183,
      "baseball": 8184,
      "informatika": 8185,
      "infarktus": 8186,
      "befektető": 8187,
      "utomata": 8188,
      "obeliszk": 8189,
      "aszűrő": 8190,
      "korrekció": 8191,
      "muslica": 8192,
      "agyulladás": 8193,
      "paradicsom": 8194,
      "piramis": 8195,
      "csecsemő": 8196,
      "gardrób": 8197,
      "burnót": 8198,
      "misszionárius": 8199,
      "intervallum": 8200,
      "köpönyeg": 8201,
      "sárgabarack": 8202,
      "influenza": 8203,
      "Aphrodité": 8204,
      "azsíroz": 8205,
      "bít": 8206,
      "bed": 8207,
      "big": 8208,
      "blan": 8209,
      "bíz": 8210,
      "bánt": 8211,
      "beint": 8212,
      "bámul": 8213,
      "beismer": 8214,
      "cáz": 8215,
      "cinc": 8216,
      "dön": 8217,
      "dizál": 8218,
      "dúl": 8219,
      "dörög": 8220,
      "ever": 8221,
      "feb": 8222,
      "fúr": 8223,
      "gány": 8224,
      "gős": 8225,
      "háp": 8226,
      "hánt": 8227,
      "hörög": 8228,
      "huny": 8229,
      "icsi": 8230,
      "kig": 8231,
      "kosít": 8232,
      "kendez": 8233,
      "lelő": 8234,
      "leint": 8235,
      "möl": 8236,
      "mint": 8237,
      "militarizál": 8238,
      "pöc": 8239,
      "rát": 8240,
      "rombol": 8241,
      "rongál": 8242,
      "stal": 8243,
      "síroz": 8244,
      "sóz": 8245,
      "sikál": 8246,
      "sújt": 8247,
      "spri": 8248,
      "seper": 8249,
      "tít": 8250,
      "told": 8251,
      "tesztel": 8252,
      "unt": 8253,
      "udik": 8254,
      "yvaszt": 8255,
      "zatos": 8256,
      "zenél": 8257,
      "ósít": 8258,
      "óhajt": 8259,
      "övez": 8260,
      "öbl": 8261,
      "únyol": 8262,
      "üszö": 8263,
      "ücsörög": 8264,
      "szépít": 8265,
      "elás": 8266,
      "elad": 8267,
      "elim": 8268,
      "elír": 8269,
      "elver": 8270,
      "elep": 8271,
      "eltör": 8272,
      "elnap": 8273,
      "elvág": 8274,
      "eldob": 8275,
      "elhúz": 8276,
      "elném": 8277,
      "elnéz": 8278,
      "elbizony": 8279,
      "elolvas": 8280,
      "elbocsát": 8281,
      "elintéz": 8282,
      "elhalaszt": 8283,
      "elkészít": 8284,
      "elszán": 8285,
      "elrendel": 8286,
      "elragad": 8287,
      "elkísér": 8288,
      "elvét": 8289,
      "elkezd": 8290,
      "elhasznál": 8291,
      "elrendez": 8292,
      "elindít": 8293,
      "elveszteget": 8294,
      "elhibáz": 8295,
      "elfogyaszt": 8296,
      "elcserél": 8297,
      "elhitet": 8298,
      "elbocsájt": 8299,
      "elleplez": 8300,
      "elfus": 8301,
      "elhamvaszt": 8302,
      "elkoboz": 8303,
      "elfelejt": 8304,
      "elront": 8305,
      "elrabol": 8306,
      "elodáz": 8307,
      "elhisz": 8308,
      "elgépel": 8309,
      "eltitkol": 8310,
      "elkényeztet": 8311,
      "eltávolít": 8312,
      "elszomorít": 8313,
      "elbátortalanít": 8314,
      "elpusztít": 8315,
      "elgázol": 8316,
      "elhomályosít": 8317,
      "eltángál": 8318,
      "elárverez": 8319,
      "elbarikád": 8320,
      "etet": 8321,
      "enizál": 8322,
      "eníroz": 8323,
      "enerál": 8324,
      "áltat": 8325,
      "álcáz": 8326,
      "annek": 8327,
      "anzsíroz": 8328,
      "okoz": 8329,
      "oktat": 8330,
      "erol": 8331,
      "egnál": 8332,
      "olongál": 8333,
      "érel": 8334,
      "érvel": 8335,
      "érendel": 8336,
      "orál": 8337,
      "ordi": 8338,
      "oratív": 8339,
      "csöl": 8340,
      "nyikál": 8341,
      "nyáv": 8342,
      "arál": 8343,
      "ítél": 8344,
      "gyeszt": 8345,
      "gyúr": 8346,
      "éltet": 8347,
      "élvez": 8348,
      "esszel": 8349,
      "sztel": 8350,
      "igáz": 8351,
      "igéz": 8352,
      "ignor": 8353,
      "megad": 8354,
      "megkö": 8355,
      "megöl": 8356,
      "meghat": 8357,
      "megáll": 8358,
      "megint": 8359,
      "megver": 8360,
      "megszám": 8361,
      "megoszt": 8362,
      "megkap": 8363,
      "meglát": 8364,
      "megmos": 8365,
      "megtud": 8366,
      "megment": 8367,
      "megkeres": 8368,
      "megbeszél": 8369,
      "megbecs": 8370,
      "megüt": 8371,
      "megszeg": 8372,
      "megjelent": 8373,
      "megcsal": 8374,
      "megtalál": 8375,
      "megbán": 8376,
      "meghív": 8377,
      "megmutat": 8378,
      "megbecsül": 8379,
      "megérint": 8380,
      "megígér": 8381,
      "megdönt": 8382,
      "megidéz": 8383,
      "megtölt": 8384,
      "megfejt": 8385,
      "megemlít": 8386,
      "megragad": 8387,
      "megfont": 8388,
      "megfoszt": 8389,
      "megáld": 8390,
      "megsegít": 8391,
      "megelőz": 8392,
      "megtilt": 8393,
      "megtrágyáz": 8394,
      "megveszteget": 8395,
      "megismétel": 8396,
      "megköszön": 8397,
      "megoltalmaz": 8398,
      "megjutalmaz": 8399,
      "megfojt": 8400,
      "megtized": 8401,
      "megerősít": 8402,
      "megtesz": 8403,
      "megjavít": 8404,
      "megcsinál": 8405,
      "megbocsájt": 8406,
      "megdorgál": 8407,
      "megkopaszt": 8408,
      "megszilárdít": 8409,
      "meghalad": 8410,
      "megoperál": 8411,
      "megcsodál": 8412,
      "megkapar": 8413,
      "megvitat": 8414,
      "megvigasztal": 8415,
      "megnyugtat": 8416,
      "megváltoztat": 8417,
      "megreformál": 8418,
      "meghiúsít": 8419,
      "megmozgat": 8420,
      "megvakar": 8421,
      "megtámad": 8422,
      "meggyilkol": 8423,
      "megmérgez": 8424,
      "megszégyenít": 8425,
      "megtapsol": 8426,
      "megválaszol": 8427,
      "megerőszak": 8428,
      "megrongál": 8429,
      "racion": 8430,
      "vádol": 8431,
      "odizál": 8432,
      "odaki": 8433,
      "taszít": 8434,
      "ogtat": 8435,
      "ogenizál": 8436,
      "baszik": 8437,
      "bagat": 8438,
      "invit": 8439,
      "inveszt": 8440,
      "incsel": 8441,
      "instal": 8442,
      "bead": 8443,
      "beír": 8444,
      "bever": 8445,
      "bevet": 8446,
      "bevesz": 8447,
      "bevezet": 8448,
      "becsap": 8449,
      "befon": 8450,
      "bebeszél": 8451,
      "bejelöl": 8452,
      "bevásárol": 8453,
      "bevall": 8454,
      "bejegyez": 8455,
      "beszakít": 8456,
      "befecs": 8457,
      "beiktat": 8458,
      "befektet": 8459,
      "befuttat": 8460,
      "beborít": 8461,
      "bebörtönöz": 8462,
      "beütem": 8463,
      "ilitál": 8464,
      "valifikál": 8465,
      "átad": 8466,
      "átír": 8467,
      "átvesz": 8468,
      "átejt": 8469,
      "áthúz": 8470,
      "átnéz": 8471,
      "átgondol": 8472,
      "átnevez": 8473,
      "átalakít": 8474,
      "átruház": 8475,
      "átismétel": 8476,
      "átfésül": 8477,
      "átkeresztel": 8478,
      "reszk": 8479,
      "repar": 8480,
      "revide": 8481,
      "reorganizál": 8482,
      "reprodukál": 8483,
      "reprezentál": 8484,
      "reprivatizál": 8485,
      "repatri": 8486,
      "kiad": 8487,
      "kiab": 8488,
      "kiver": 8489,
      "kivon": 8490,
      "kivesz": 8491,
      "kicsont": 8492,
      "kipár": 8493,
      "kifon": 8494,
      "kiher": 8495,
      "kibeszél": 8496,
      "kihúz": 8497,
      "kienged": 8498,
      "kiállít": 8499,
      "kirek": 8500,
      "kivisz": 8501,
      "kiterjeszt": 8502,
      "kifejez": 8503,
      "kipróbál": 8504,
      "kifoszt": 8505,
      "kivégez": 8506,
      "kivív": 8507,
      "kicserél": 8508,
      "kiábrán": 8509,
      "kijavít": 8510,
      "kitagad": 8511,
      "kitakarít": 8512,
      "kifigur": 8513,
      "felel": 8514,
      "felad": 8515,
      "felír": 8516,
      "felhat": 8517,
      "felvesz": 8518,
      "felosz": 8519,
      "felmos": 8520,
      "felszív": 8521,
      "felvált": 8522,
      "feldob": 8523,
      "felmond": 8524,
      "felidéz": 8525,
      "feltölt": 8526,
      "felszerel": 8527,
      "felakaszt": 8528,
      "felfrissít": 8529,
      "felébreszt": 8530,
      "felrobbant": 8531,
      "feltesz": 8532,
      "felcsinál": 8533,
      "felnyergel": 8534,
      "felfüggeszt": 8535,
      "feltámaszt": 8536,
      "felkiált": 8537,
      "felszabadít": 8538,
      "felidegesít": 8539,
      "feláldoz": 8540,
      "ittál": 8541,
      "itimál": 8542,
      "immobil": 8543,
      "zsöl": 8544,
      "szerak": 8545,
      "ölel": 8546,
      "ölet": 8547,
      "agitál": 8548,
      "ámít": 8549,
      "lead": 8550,
      "leül": 8551,
      "leír": 8552,
      "lever": 8553,
      "levet": 8554,
      "levon": 8555,
      "levesz": 8556,
      "leolt": 8557,
      "lejt": 8558,
      "lebeszél": 8559,
      "leépít": 8560,
      "lefest": 8561,
      "leszed": 8562,
      "lebecsül": 8563,
      "lehangol": 8564,
      "lefejez": 8565,
      "levetkőztet": 8566,
      "lebetűz": 8567,
      "lecsatol": 8568,
      "lehel": 8569,
      "leföldel": 8570,
      "lebőg": 8571,
      "leigáz": 8572,
      "hatványoz": 8573,
      "tereget": 8574,
      "talló": 8575,
      "észszerűsít": 8576,
      "ényel": 8577,
      "ural": 8578,
      "kaszál": 8579,
      "prolongál": 8580,
      "örököl": 8581,
      "összerak": 8582,
      "hezvisz": 8583,
      "jelez": 8584,
      "jelképez": 8585,
      "treníroz": 8586,
      "opponál": 8587,
      "halászik": 8588,
      "diktál": 8589,
      "tankol": 8590,
      "tárul": 8591,
      "esztál": 8592,
      "előad": 8593,
      "előír": 8594,
      "előkészít": 8595,
      "előidéz": 8596,
      "előmozdít": 8597,
      "tetéz": 8598,
      "kormányoz": 8599,
      "kortyol": 8600,
      "kornyikál": 8601,
      "özösít": 8602,
      "ontart": 8603,
      "ontlát": 8604,
      "verbu": 8605,
      "verdes": 8606,
      "nevel": 8607,
      "kerít": 8608,
      "kerget": 8609,
      "borogat": 8610,
      "inkrim": 8611,
      "illusztrál": 8612,
      "vezényel": 8613,
      "hajít": 8614,
      "ellizál": 8615,
      "ugat": 8616,
      "eplez": 8617,
      "vetet": 8618,
      "vetít": 8619,
      "agyít": 8620,
      "újrak": 8621,
      "tálal": 8622,
      "variál": 8623,
      "töröl": 8624,
      "tördel": 8625,
      "elment": 8626,
      "ízlel": 8627,
      "vonsz": 8628,
      "visít": 8629,
      "koordi": 8630,
      "műt": 8631,
      "karcol": 8632,
      "képvisel": 8633,
      "likvid": 8634,
      "ráad": 8635,
      "rávesz": 8636,
      "rábeszél": 8637,
      "ráküld": 8638,
      "várat": 8639,
      "konstat": 8640,
      "konfir": 8641,
      "konvertál": 8642,
      "konfront": 8643,
      "tyül": 8644,
      "tyázik": 8645,
      "helybenhagy": 8646,
      "kefél": 8647,
      "keves": 8648,
      "unszol": 8649,
      "körmöl": 8650,
      "körbefuttat": 8651,
      "perel": 8652,
      "perget": 8653,
      "számonk": 8654,
      "számontart": 8655,
      "fölír": 8656,
      "fölvált": 8657,
      "fölbecsül": 8658,
      "ványos": 8659,
      "félt": 8660,
      "félkövér": 8661,
      "félbeszakít": 8662,
      "letesz": 8663,
      "letelep": 8664,
      "legalizál": 8665,
      "legitimál": 8666,
      "hangszerel": 8667,
      "leken": 8668,
      "leküld": 8669,
      "lekerek": 8670,
      "lekicsi": 8671,
      "véglegesít": 8672,
      "véghezvisz": 8673,
      "parodizál": 8674,
      "gyón": 8675,
      "spór": 8676,
      "komponál": 8677,
      "kommentál": 8678,
      "veszít": 8679,
      "veszejt": 8680,
      "latol": 8681,
      "berúg": 8682,
      "betakar": 8683,
      "tüzel": 8684,
      "mérel": 8685,
      "mérlegel": 8686,
      "vitet": 8687,
      "plánt": 8688,
      "fröcs": 8689,
      "fütyül": 8690,
      "tolerál": 8691,
      "összead": 8692,
      "összebeszél": 8693,
      "összeállít": 8694,
      "összefut": 8695,
      "összehív": 8696,
      "világít": 8697,
      "mosogat": 8698,
      "mosolyog": 8699,
      "ellenvet": 8700,
      "ellenőriz": 8701,
      "ellensúlyoz": 8702,
      "visszaad": 8703,
      "visszahelyez": 8704,
      "indukál": 8705,
      "avanzsíroz": 8706,
      "kérd": 8707,
      "tisztít": 8708,
      "tisztogat": 8709,
      "patkol": 8710,
      "növeszt": 8711,
      "tudósít": 8712,
      "kártalanít": 8713,
      "kárpótol": 8714,
      "kártyázik": 8715,
      "készletez": 8716,
      "meneszt": 8717,
      "nyomoz": 8718,
      "változ": 8719,
      "dobol": 8720,
      "dobogtat": 8721,
      "leltet": 8722,
      "leleplez": 8723,
      "szalaszt": 8724,
      "szalajt": 8725,
      "cserbenhagy": 8726,
      "részesít": 8727,
      "deaktivál": 8728,
      "magáz": 8729,
      "beszéltet": 8730,
      "színez": 8731,
      "antíroz": 8732,
      "tapaszt": 8733,
      "fénymásol": 8734,
      "szárít": 8735,
      "becsuk": 8736,
      "becsíp": 8737,
      "becsmérel": 8738,
      "mellérendel": 8739,
      "tartalmaz": 8740,
      "kodifikál": 8741,
      "ragaszt": 8742,
      "hasít": 8743,
      "kelt": 8744,
      "szorít": 8745,
      "szoroz": 8746,
      "szabadalmaz": 8747,
      "jóvátesz": 8748,
      "piál": 8749,
      "stresszel": 8750,
      "távvezérel": 8751,
      "csacsog": 8752,
      "városiasít": 8753,
      "pucol": 8754,
      "regenerál": 8755,
      "lapoz": 8756,
      "eményez": 8757,
      "öntöz": 8758,
      "késő": 8759,
      "késel": 8760,
      "késleltet": 8761,
      "szarik": 8762,
      "homogenizál": 8763,
      "radíroz": 8764,
      "ködösít": 8765,
      "húzat": 8766,
      "túloz": 8767,
      "túlél": 8768,
      "túltol": 8769,
      "túlbeszél": 8770,
      "túllép": 8771,
      "túlbecsül": 8772,
      "túlterhel": 8773,
      "túladagol": 8774,
      "nyugdíjaz": 8775,
      "fürdet": 8776,
      "beken": 8777,
      "garazsíroz": 8778,
      "garantíroz": 8779,
      "kopog": 8780,
      "szentesít": 8781,
      "bilincsel": 8782,
      "pénzel": 8783,
      "fagyaszt": 8784,
      "fagylal": 8785,
      "lemos": 8786,
      "lemond": 8787,
      "elmeztet": 8788,
      "csór": 8789,
      "csókol": 8790,
      "csönget": 8791,
      "termeszt": 8792,
      "flamb": 8793,
      "könnyít": 8794,
      "aláás": 8795,
      "aláír": 8796,
      "aláhúz": 8797,
      "alábecsül": 8798,
      "aláaknáz": 8799,
      "fakít": 8800,
      "kettészak": 8801,
      "kurtít": 8802,
      "fércel": 8803,
      "viszontlát": 8804,
      "darál": 8805,
      "dardizál": 8806,
      "roborál": 8807,
      "titrál": 8808,
      "titkosít": 8809,
      "paníroz": 8810,
      "telepakol": 8811,
      "fűt": 8812,
      "szigorít": 8813,
      "kinevez": 8814,
      "kinagyít": 8815,
      "sokkol": 8816,
      "cipel": 8817,
      "szimulál": 8818,
      "szimatol": 8819,
      "makog": 8820,
      "dalol": 8821,
      "olajoz": 8822,
      "kirúg": 8823,
      "padol": 8824,
      "odaad": 8825,
      "újraél": 8826,
      "újraparti": 8827,
      "újraértelmez": 8828,
      "sikít": 8829,
      "sikolt": 8830,
      "vedel": 8831,
      "vedál": 8832,
      "dezorganizál": 8833,
      "vagdal": 8834,
      "pácol": 8835,
      "szőkít": 8836,
      "hívat": 8837,
      "almasít": 8838,
      "furdal": 8839,
      "szocializál": 8840,
      "beleír": 8841,
      "belevág": 8842,
      "belebeszél": 8843,
      "beleüvölt": 8844,
      "kesereg": 8845,
      "szoktat": 8846,
      "figyelmeztet": 8847,
      "zsarol": 8848,
      "kölcsönöz": 8849,
      "lyukaszt": 8850,
      "kotyvaszt": 8851,
      "geál": 8852,
      "megbánt": 8853,
      "megbüntet": 8854,
      "összekever": 8855,
      "semlegesít": 8856,
      "filmez": 8857,
      "irányít": 8858,
      "koccint": 8859,
      "hűt": 8860,
      "kiken": 8861,
      "kikapcsol": 8862,
      "kikérdez": 8863,
      "kiküszö": 8864,
      "kiközösít": 8865,
      "üdvözöl": 8866,
      "mekeg": 8867,
      "remilitarizál": 8868,
      "rajzol": 8869,
      "retizál": 8870,
      "vonalaz": 8871,
      "zsebel": 8872,
      "hajtogat": 8873,
      "borzaszt": 8874,
      "tojik": 8875,
      "rejteget": 8876,
      "bódít": 8877,
      "hazudik": 8878,
      "táncol": 8879,
      "udvarol": 8880,
      "készíttet": 8881,
      "irigyel": 8882,
      "povedál": 8883,
      "szürcsöl": 8884,
      "továbbad": 8885,
      "molesztál": 8886,
      "motyog": 8887,
      "motivál": 8888,
      "körülír": 8889,
      "körülvesz": 8890,
      "körülhatárol": 8891,
      "dominál": 8892,
      "szűk": 8893,
      "szűkít": 8894,
      "szagol": 8895,
      "szagtalanít": 8896,
      "agyonlő": 8897,
      "agyoncsap": 8898,
      "agyonüt": 8899,
      "agyonszúr": 8900,
      "újjáépít": 8901,
      "szeparál": 8902,
      "hiányol": 8903,
      "csillapít": 8904,
      "énekel": 8905,
      "bátorít": 8906,
      "profanizál": 8907,
      "rövidít": 8908,
      "hozzáír": 8909,
      "hozzáfog": 8910,
      "leráz": 8911,
      "lerombol": 8912,
      "lamál": 8913,
      "lenyel": 8914,
      "szennyez": 8915,
      "dinsztel": 8916,
      "kalapál": 8917,
      "veszélyes": 8918,
      "redukál": 8919,
      "simít": 8920,
      "szétlapít": 8921,
      "dagaszt": 8922,
      "gyászol": 8923,
      "zsákmányol": 8924,
      "aturál": 8925,
      "idead": 8926,
      "idealizál": 8927,
      "diszkvalifikál": 8928,
      "fosztogat": 8929,
      "ecsetel": 8930,
      "kezdeményez": 8931,
      "hámoz": 8932,
      "fékez": 8933,
      "konkretizál": 8934,
      "pörget": 8935,
      "szégyell": 8936,
      "kegyel": 8937,
      "transzformál": 8938,
      "transzferál": 8939,
      "sárgít": 8940,
      "kandíroz": 8941,
      "lokalizál": 8942,
      "varázsol": 8943,
      "elektrifikál": 8944,
      "pakol": 8945,
      "nagyíttat": 8946,
      "meggyújt": 8947,
      "aktivizál": 8948,
      "gyakorol": 8949,
      "bütüz": 8950,
      "dörzsöl": 8951,
      "tipor": 8952,
      "tippel": 8953,
      "vendégel": 8954,
      "kínoz": 8955,
      "denaturál": 8956,
      "helyesbít": 8957,
      "hegeszt": 8958,
      "legyint": 8959,
      "kovácsol": 8960,
      "reklámoz": 8961,
      "memorizál": 8962,
      "pingál": 8963,
      "lovagol": 8964,
      "szellőztet": 8965,
      "bombáz": 8966,
      "stimulál": 8967,
      "kerülget": 8968,
      "szavaz": 8969,
      "legeltet": 8970,
      "kerekít": 8971,
      "retteg": 8972,
      "forradalmasít": 8973,
      "csoportosít": 8974,
      "zabál": 8975,
      "gyengít": 8976,
      "szégyenl": 8977,
      "hígít": 8978,
      "indexel": 8979,
      "szórakoztat": 8980,
      "rongyol": 8981,
      "aránytalan": 8982,
      "boldogít": 8983,
      "lagos": 8984,
      "villant": 8985,
      "címez": 8986,
      "kacag": 8987,
      "dumál": 8988,
      "trombitál": 8989,
      "fényképez": 8990,
      "jóváír": 8991,
      "jegyzetel": 8992,
      "fűrészel": 8993,
      "érvénytelenít": 8994,
      "ábrázol": 8995,
      "firkál": 8996,
      "firkant": 8997,
      "szopik": 8998,
      "szoptat": 8999,
      "csenget": 9000,
      "ihlet": 9001,
      "besúg": 9002,
      "tájékoztat": 9003,
      "fixál": 9004,
      "misztifikál": 9005,
      "méregtelenít": 9006,
      "szappanoz": 9007,
      "fasíroz": 9008,
      "jósol": 9009,
      "limitál": 9010,
      "terrorizál": 9011,
      "harmonizál": 9012,
      "kurzivál": 9013,
      "mechanizál": 9014,
      "röhög": 9015,
      "kommunikál": 9016,
      "demokratizál": 9017,
      "bordáz": 9018,
      "hullat": 9019,
      "kettévág": 9020,
      "standardizál": 9021,
      "ajándékoz": 9022,
      "söpör": 9023,
      "csomagol": 9024,
      "fecsérel": 9025,
      "mível": 9026,
      "végigbeszél": 9027,
      "stíröl": 9028,
      "automatizál": 9029,
      "pedikűröztet": 9030,
      "csábít": 9031,
      "példáz": 9032,
      "érzéstelenít": 9033,
      "preferál": 9034,
      "birtokol": 9035,
      "dühít": 9036,
      "kölcsönk": 9037,
      "vegetál": 9038,
      "zsúfol": 9039,
      "optimalizál": 9040,
      "asszociál": 9041,
      "kisebbít": 9042,
      "létrehoz": 9043,
      "felülmúl": 9044,
      "dűt": 9045,
      "zargat": 9046,
      "kajál": 9047,
      "naturalizál": 9048,
      "puszil": 9049,
      "süvegel": 9050,
      "javasol": 9051,
      "progresszív": 9052,
      "lektorál": 9053,
      "frizíroz": 9054,
      "előléptet": 9055,
      "bezár": 9056,
      "bezúg": 9057,
      "telefonálgat": 9058,
      "tömörít": 9059,
      "forral": 9060,
      "megnyúz": 9061,
      "feltételez": 9062,
      "undorít": 9063,
      "bosszant": 9064,
      "suttog": 9065,
      "viszonoz": 9066,
      "hozzátesz": 9067,
      "adminisztrál": 9068,
      "diszkriminál": 9069,
      "közvetít": 9070,
      "kategorizál": 9071,
      "modernizál": 9072,
      "vonatkoztat": 9073,
      "popularizál": 9074,
      "kockáztat": 9075,
      "abbahagy": 9076,
      "proklamál": 9077,
      "röfög": 9078,
      "elpaterol": 9079,
      "eljuttat": 9080,
      "elpárologtat": 9081,
      "közbevet": 9082,
      "egybeír": 9083,
      "adományoz": 9084,
      "pisil": 9085,
      "pumpál": 9086,
      "toboroz": 9087,
      "tangózik": 9088,
      "ebédel": 9089,
      "kontrollál": 9090,
      "betonoz": 9091,
      "csicsereg": 9092,
      "muzsikál": 9093,
      "determinál": 9094,
      "szinkronizál": 9095,
      "publikál": 9096,
      "beidéz": 9097,
      "beidegez": 9098,
      "elveszít": 9099,
      "elhallgattat": 9100,
      "blamál": 9101,
      "blamíroz": 9102,
      "halványít": 9103,
      "göndörít": 9104,
      "aktualizál": 9105,
      "megsemmisít": 9106,
      "kifogásol": 9107,
      "tökéletesít": 9108,
      "mozgósít": 9109,
      "demonstrál": 9110,
      "stabilizál": 9111,
      "befolyásol": 9112,
      "skalpol": 9113,
      "szelektál": 9114,
      "rehabilitál": 9115,
      "improvizál": 9116,
      "vihog": 9117,
      "liberalizál": 9118,
      "letartóztat": 9119,
      "füstöl": 9120,
      "komplikál": 9121,
      "licencel": 9122,
      "méltányol": 9123,
      "fölülmúl": 9124,
      "bekerít": 9125,
      "mézel": 9126,
      "kielégít": 9127,
      "vezekel": 9128,
      "beköp": 9129,
      "blattol": 9130,
      "böcsül": 9131,
      "desztillál": 9132,
      "kalkulál": 9133,
      "locsol": 9134,
      "montíroz": 9135,
      "mázsál": 9136,
      "xeroxozik": 9137,
      "áhít": 9138,
      "csépel": 9139,
      "emulgeál": 9140,
      "gyötör": 9141,
      "feldolgoz": 9142,
      "impregnál": 9143,
      "tönkretesz": 9144,
      "észrevesz": 9145,
      "kaszabol": 9146,
      "prédikál": 9147,
      "propagál": 9148,
      "kóstol": 9149,
      "karikíroz": 9150,
      "konstruál": 9151,
      "konszolidál": 9152,
      "szótagol": 9153,
      "helyreállít": 9154,
      "szkennel": 9155,
      "kommandíroz": 9156,
      "kompromittál": 9157,
      "tolmácsol": 9158,
      "kalauzol": 9159,
      "devalvál": 9160,
      "definiál": 9161,
      "rágcsál": 9162,
      "gyarmatosít": 9163,
      "szekularizál": 9164,
      "szigonyoz": 9165,
      "bojkottál": 9166,
      "demoralizál": 9167,
      "szintetizál": 9168,
      "rezervál": 9169,
      "manipulál": 9170,
      "kompenzál": 9171,
      "delegál": 9172,
      "domesztikál": 9173,
      "fertőtlenít": 9174,
      "fókuszál": 9175,
      "rögzít": 9176,
      "rögtönöz": 9177,
      "dézsmál": 9178,
      "lejnol": 9179,
      "samponoz": 9180,
      "negligál": 9181,
      "fetisizál": 9182,
      "mészárol": 9183,
      "sminkel": 9184,
      "távirányít": 9185,
      "ventilál": 9186,
      "komplimentíroz": 9187,
      "zsindelyez": 9188,
      "sóvárog": 9189,
      "pazarol": 9190,
      "ivartalanít": 9191,
      "utolér": 9192,
      "disztingvál": 9193,
      "öklöz": 9194,
      "perforál": 9195,
      "szimbolizál": 9196,
      "digitalizál": 9197,
      "kimerít": 9198,
      "bedob": 9199,
      "biggyeszt": 9200,
      "blansíroz": 9201,
      "cincog": 9202,
      "dönget": 9203,
      "gányol": 9204,
      "hápog": 9205,
      "kigúnyol": 9206,
      "mintáz": 9207,
      "pöcköl": 9208,
      "rátesz": 9209,
      "spriccel": 9210,
      "untat": 9211,
      "öblít": 9212,
      "eliminál": 9213,
      "elnapol": 9214,
      "elnémít": 9215,
      "elbizonytalanít": 9216,
      "elragadtat": 9217,
      "elfuserál": 9218,
      "elbarikádoz": 9219,
      "annektál": 9220,
      "nyávog": 9221,
      "ignorál": 9222,
      "megkövez": 9223,
      "megszámoz": 9224,
      "megbecstelenít": 9225,
      "megjelentet": 9226,
      "megfontol": 9227,
      "megtizedel": 9228,
      "megkaparint": 9229,
      "megerőszakol": 9230,
      "racionalizál": 9231,
      "odakiált": 9232,
      "bagatellizál": 9233,
      "invitál": 9234,
      "invesztál": 9235,
      "installál": 9236,
      "befecskendez": 9237,
      "beütemez": 9238,
      "reszkíroz": 9239,
      "reparál": 9240,
      "revideál": 9241,
      "repatriál": 9242,
      "kiabál": 9243,
      "kicsontoz": 9244,
      "kipárnáz": 9245,
      "kiherél": 9246,
      "kirekeszt": 9247,
      "kiábrándít": 9248,
      "kifiguráz": 9249,
      "felhatalmaz": 9250,
      "feloszlat": 9251,
      "immobilizál": 9252,
      "tallóz": 9253,
      "verbuvál": 9254,
      "inkriminál": 9255,
      "újrakezd": 9256,
      "koordinál": 9257,
      "likvidál": 9258,
      "konstatál": 9259,
      "konfirmál": 9260,
      "konfrontál": 9261,
      "kevesell": 9262,
      "számonkér": 9263,
      "félkövérít": 9264,
      "letelepít": 9265,
      "lekerekít": 9266,
      "lekicsinyel": 9267,
      "spórol": 9268,
      "betakarít": 9269,
      "plántál": 9270,
      "fröcsköl": 9271,
      "szabadalmaztat": 9272,
      "flambíroz": 9273,
      "kettészakít": 9274,
      "újraparticionál": 9275,
      "kiküszöböl": 9276,
      "kölcsönkér": 9277,
      "Ind": 9278,
      "aug": 9279,
      "fenék": 9280,
      "ibb": 9281,
      "júl": 9282,
      "lék": 9283,
      "lékeny": 9284,
      "mák": 9285,
      "nov": 9286,
      "pék": 9287,
      "tos": 9288,
      "vú": 9289,
      "ápr": 9290,
      "elügyetlenkedik": 9291,
      "orikus": 9292,
      "emik": 9293,
      "uláris": 9294,
      "ányi": 9295,
      "entális": 9296,
      "langy": 9297,
      "forró": 9298,
      "diák": 9299,
      "ellik": 9300,
      "torok": 9301,
      "szavú": 9302,
      "végrendelkezik": 9303,
      "vakond": 9304,
      "csempészik": 9305,
      "alázatos": 9306,
      "legelészik": 9307,
[...]
